
#ifdef __has_attribute
#define HAVE_ATTRIBUTE(x) __has_attribute(x)
#else
#define HAVE_ATTRIBUTE(x) 0
#endif
#if HAVE_ATTRIBUTE(aligned) || (defined(__GNUC__) && !defined(__clang__))
#define DATA_ALIGN_ATTRIBUTE __attribute__((aligned(4)))
#else
#define DATA_ALIGN_ATTRIBUTE
#endif

const unsigned char model_data[] DATA_ALIGN_ATTRIBUTE = {0x1c, 0x00, 0x00, 0x00, 0x54, 0x46, 0x4c, 0x33, 0x14, 0x00, 0x20, 0x00, 0x04, 0x00, 0x08, 0x00, 0x0c, 0x00, 0x10, 0x00, 0x14, 0x00, 0x00, 0x00, 0x18, 0x00, 0x1c, 0x00, 0x14, 0x00, 0x00, 0x00, 0x03, 0x00, 0x00, 0x00, 0x18, 0x00, 0x00, 0x00, 0x20, 0x00, 0x00, 0x00, 0x2c, 0x01, 0x00, 0x00, 0x20, 0x00, 0x00, 0x00, 0xd4, 0x00, 0x00, 0x00, 0x50, 0x00, 0x00, 0x00, 0x02, 0x00, 0x00, 0x00, 0x18, 0x04, 0x00, 0x00, 0xec, 0x01, 0x00, 0x00, 0x01, 0x00, 0x00, 0x00, 0x30, 0x01, 0x00, 0x00, 0x0d, 0x00, 0x00, 0x00, 0x14, 0x1e, 0x00, 0x00, 0x10, 0x1e, 0x00, 0x00, 0x40, 0x1d, 0x00, 0x00, 0xc0, 0x1c, 0x00, 0x00, 0x00, 0x1c, 0x00, 0x00, 0xb0, 0x0b, 0x00, 0x00, 0x5c, 0x05, 0x00, 0x00, 0x78, 0x04, 0x00, 0x00, 0xf4, 0x1d, 0x00, 0x00, 0xf0, 0x1d, 0x00, 0x00, 0xec, 0x1d, 0x00, 0x00, 0xe8, 0x1d, 0x00, 0x00, 0xb8, 0x00, 0x00, 0x00, 0x01, 0x00, 0x00, 0x00, 0x10, 0x00, 0x00, 0x00, 0x00, 0x00, 0x0a, 0x00, 0x10, 0x00, 0x0c, 0x00, 0x08, 0x00, 0x04, 0x00, 0x0a, 0x00, 0x00, 0x00, 0x0c, 0x00, 0x00, 0x00, 0x1c, 0x00, 0x00, 0x00, 0x20, 0x00, 0x00, 0x00, 0x0f, 0x00, 0x00, 0x00, 0x73, 0x65, 0x72, 0x76, 0x69, 0x6e, 0x67, 0x5f, 0x64, 0x65, 0x66, 0x61, 0x75, 0x6c, 0x74, 0x00, 0x01, 0x00, 0x00, 0x00, 0x14, 0x00, 0x00, 0x00, 0x01, 0x00, 0x00, 0x00, 0x24, 0x00, 0x00, 0x00, 0x08, 0x00, 0x0c, 0x00, 0x08, 0x00, 0x04, 0x00, 0x08, 0x00, 0x00, 0x00, 0x0a, 0x00, 0x00, 0x00, 0x04, 0x00, 0x00, 0x00, 0x07, 0x00, 0x00, 0x00, 0x64, 0x65, 0x6e, 0x73, 0x65, 0x5f, 0x32, 0x00, 0x5a, 0xe3, 0xff, 0xff, 0x04, 0x00, 0x00, 0x00, 0x0b, 0x00, 0x00, 0x00, 0x64, 0x65, 0x6e, 0x73, 0x65, 0x5f, 0x69, 0x6e, 0x70, 0x75, 0x74, 0x00, 0x01, 0x00, 0x00, 0x00, 0x0c, 0x00, 0x00, 0x00, 0x08, 0x00, 0x0c, 0x00, 0x04, 0x00, 0x08, 0x00, 0x08, 0x00, 0x00, 0x00, 0x08, 0x00, 0x00, 0x00, 0x0c, 0x00, 0x00, 0x00, 0x13, 0x00, 0x00, 0x00, 0x6d, 0x69, 0x6e, 0x5f, 0x72, 0x75, 0x6e, 0x74, 0x69, 0x6d, 0x65, 0x5f, 0x76, 0x65, 0x72, 0x73, 0x69, 0x6f, 0x6e, 0x00, 0xa6, 0xe3, 0xff, 0xff, 0x04, 0x00, 0x00, 0x00, 0x10, 0x00, 0x00, 0x00, 0x31, 0x2e, 0x35, 0x2e, 0x30, 0x00, 0x00, 0x00, 0x00, 0x00, 0x00, 0x00, 0x00, 0x00, 0x00, 0x00, 0x0f, 0x00, 0x00, 0x00, 0x4d, 0x4c, 0x49, 0x52, 0x20, 0x43, 0x6f, 0x6e, 0x76, 0x65, 0x72, 0x74, 0x65, 0x64, 0x2e, 0x00, 0x00, 0x00, 0x0e, 0x00, 0x18, 0x00, 0x04, 0x00, 0x08, 0x00, 0x0c, 0x00, 0x10, 0x00, 0x14, 0x00, 0x0e, 0x00, 0x00, 0x00, 0x14, 0x00, 0x00, 0x00, 0x40, 0x00, 0x00, 0x00, 0x44, 0x00, 0x00, 0x00, 0x48, 0x00, 0x00, 0x00, 0x58, 0x00, 0x00, 0x00, 0x0b, 0x00, 0x00, 0x00, 0x74, 0x1c, 0x00, 0x00, 0x28, 0x1c, 0x00, 0x00, 0xbc, 0x1b, 0x00, 0x00, 0x4c, 0x1b, 0x00, 0x00, 0x7c, 0x1a, 0x00, 0x00, 0x28, 0x0a, 0x00, 0x00, 0xd4, 0x03, 0x00, 0x00, 0xb4, 0x02, 0x00, 0x00, 0xc0, 0x01, 0x00, 0x00, 0x08, 0x01, 0x00, 0x00, 0x80, 0x00, 0x00, 0x00, 0x01, 0x00, 0x00, 0x00, 0x00, 0x00, 0x00, 0x00, 0x01, 0x00, 0x00, 0x00, 0x0a, 0x00, 0x00, 0x00, 0x04, 0x00, 0x00, 0x00, 0x38, 0x02, 0x00, 0x00, 0x68, 0x01, 0x00, 0x00, 0xb4, 0x00, 0x00, 0x00, 0x1c, 0x00, 0x00, 0x00, 0x04, 0x00, 0x00, 0x00, 0x6d, 0x61, 0x69, 0x6e, 0x00, 0x00, 0x0e, 0x00, 0x18, 0x00, 0x08, 0x00, 0x0c, 0x00, 0x10, 0x00, 0x07, 0x00, 0x14, 0x00, 0x0e, 0x00, 0x00, 0x00, 0x00, 0x00, 0x00, 0x09, 0x01, 0x00, 0x00, 0x00, 0x1c, 0x00, 0x00, 0x00, 0x10, 0x00, 0x00, 0x00, 0x04, 0x00, 0x00, 0x00, 0x82, 0xe4, 0xff, 0xff, 0x00, 0x00, 0x80, 0x3f, 0x01, 0x00, 0x00, 0x00, 0x0a, 0x00, 0x00, 0x00, 0x01, 0x00, 0x00, 0x00, 0x09, 0x00, 0x00, 0x00, 0xe4, 0xfd, 0xff, 0xff, 0x19, 0x00, 0x00, 0x00, 0x00, 0x00, 0x00, 0x19, 0x01, 0x00, 0x00, 0x00, 0x48, 0xe4, 0xff, 0xff, 0x14, 0x00, 0x00, 0x00, 0x0b, 0x00, 0x00, 0x00, 0x18, 0x00, 0x00, 0x00, 0x40, 0x00, 0x00, 0x00, 0x30, 0x00, 0x00, 0x00, 0x02, 0x00, 0x00, 0x00, 0x01, 0x00, 0x00, 0x00, 0x03, 0x00, 0x00, 0x00, 0x19, 0x00, 0x00, 0x00, 0x53, 0x74, 0x61, 0x74, 0x65, 0x66, 0x75, 0x6c, 0x50, 0x61, 0x72, 0x74, 0x69, 0x74, 0x69, 0x6f, 0x6e, 0x65, 0x64, 0x43, 0x61, 0x6c, 0x6c, 0x3a, 0x30, 0x00, 0x00, 0x00, 0x02, 0x00, 0x00, 0x00, 0xff, 0xff, 0xff, 0xff, 0x03, 0x00, 0x00, 0x00, 0x2c, 0xe4, 0xff, 0xff, 0x5e, 0xff, 0xff, 0xff, 0x00, 0x00, 0x00, 0x08, 0x18, 0x00, 0x00, 0x00, 0x0c, 0x00, 0x00, 0x00, 0x04, 0x00, 0x00, 0x00, 0x44, 0xe4, 0xff, 0xff, 0x01, 0x00, 0x00, 0x00, 0x09, 0x00, 0x00, 0x00, 0x03, 0x00, 0x00, 0x00, 0x08, 0x00, 0x00, 0x00, 0x06, 0x00, 0x00, 0x00, 0x01, 0x00, 0x00, 0x00, 0xcc, 0xe4, 0xff, 0xff, 0x14, 0x00, 0x00, 0x00, 0x0a, 0x00, 0x00, 0x00, 0x18, 0x00, 0x00, 0x00, 0x5c, 0x00, 0x00, 0x00, 0x4c, 0x00, 0x00, 0x00, 0x02, 0x00, 0x00, 0x00, 0x01, 0x00, 0x00, 0x00, 0x03, 0x00, 0x00, 0x00, 0x34, 0x00, 0x00, 0x00, 0x73, 0x65, 0x71, 0x75, 0x65, 0x6e, 0x74, 0x69, 0x61, 0x6c, 0x2f, 0x64, 0x65, 0x6e, 0x73, 0x65, 0x5f, 0x32, 0x2f, 0x4d, 0x61, 0x74, 0x4d, 0x75, 0x6c, 0x3b, 0x73, 0x65, 0x71, 0x75, 0x65, 0x6e, 0x74, 0x69, 0x61, 0x6c, 0x2f, 0x64, 0x65, 0x6e, 0x73, 0x65, 0x5f, 0x32, 0x2f, 0x42, 0x69, 0x61, 0x73, 0x41, 0x64, 0x64, 0x00, 0x00, 0x00, 0x00, 0x02, 0x00, 0x00, 0x00, 0xff, 0xff, 0xff, 0xff, 0x03, 0x00, 0x00, 0x00, 0xa4, 0xe5, 0xff, 0xff, 0x00, 0x00, 0x0e, 0x00, 0x14, 0x00, 0x00, 0x00, 0x08, 0x00, 0x0c, 0x00, 0x07, 0x00, 0x10, 0x00, 0x0e, 0x00, 0x00, 0x00, 0x00, 0x00, 0x00, 0x08, 0x1c, 0x00, 0x00, 0x00, 0x10, 0x00, 0x00, 0x00, 0x04, 0x00, 0x00, 0x00, 0x32, 0xff, 0xff, 0xff, 0x00, 0x00, 0x00, 0x01, 0x01, 0x00, 0x00, 0x00, 0x08, 0x00, 0x00, 0x00, 0x03, 0x00, 0x00, 0x00, 0x07, 0x00, 0x00, 0x00, 0x05, 0x00, 0x00, 0x00, 0x02, 0x00, 0x00, 0x00, 0x80, 0xe5, 0xff, 0xff, 0x14, 0x00, 0x00, 0x00, 0x09, 0x00, 0x00, 0x00, 0x18, 0x00, 0x00, 0x00, 0x74, 0x00, 0x00, 0x00, 0x64, 0x00, 0x00, 0x00, 0x02, 0x00, 0x00, 0x00, 0x01, 0x00, 0x00, 0x00, 0x0c, 0x00, 0x00, 0x00, 0x4c, 0x00, 0x00, 0x00, 0x73, 0x65, 0x71, 0x75, 0x65, 0x6e, 0x74, 0x69, 0x61, 0x6c, 0x2f, 0x64, 0x65, 0x6e, 0x73, 0x65, 0x5f, 0x31, 0x2f, 0x4d, 0x61, 0x74, 0x4d, 0x75, 0x6c, 0x3b, 0x73, 0x65, 0x71, 0x75, 0x65, 0x6e, 0x74, 0x69, 0x61, 0x6c, 0x2f, 0x64, 0x65, 0x6e, 0x73, 0x65, 0x5f, 0x31, 0x2f, 0x52, 0x65, 0x6c, 0x75, 0x3b, 0x73, 0x65, 0x71, 0x75, 0x65, 0x6e, 0x74, 0x69, 0x61, 0x6c, 0x2f, 0x64, 0x65, 0x6e, 0x73, 0x65, 0x5f, 0x31, 0x2f, 0x42, 0x69, 0x61, 0x73, 0x41, 0x64, 0x64, 0x00, 0x00, 0x00, 0x00, 0x02, 0x00, 0x00, 0x00, 0xff, 0xff, 0xff, 0xff, 0x0c, 0x00, 0x00, 0x00, 0x70, 0xe6, 0xff, 0xff, 0x00, 0x00, 0x0e, 0x00, 0x16, 0x00, 0x00, 0x00, 0x08, 0x00, 0x0c, 0x00, 0x07, 0x00, 0x10, 0x00, 0x0e, 0x00, 0x00, 0x00, 0x00, 0x00, 0x00, 0x08, 0x24, 0x00, 0x00, 0x00, 0x18, 0x00, 0x00, 0x00, 0x0c, 0x00, 0x00, 0x00, 0x00, 0x00, 0x06, 0x00, 0x08, 0x00, 0x07, 0x00, 0x06, 0x00, 0x00, 0x00, 0x00, 0x00, 0x00, 0x01, 0x01, 0x00, 0x00, 0x00, 0x07, 0x00, 0x00, 0x00, 0x03, 0x00, 0x00, 0x00, 0x00, 0x00, 0x00, 0x00, 0x04, 0x00, 0x00, 0x00, 0x03, 0x00, 0x00, 0x00, 0x0c, 0x00, 0x10, 0x00, 0x0b, 0x00, 0x00, 0x00, 0x0c, 0x00, 0x04, 0x00, 0x0c, 0x00, 0x00, 0x00, 0x09, 0x00, 0x00, 0x00, 0x00, 0x00, 0x00, 0x09, 0x01, 0x00, 0x00, 0x00, 0x70, 0xe6, 0xff, 0xff, 0x14, 0x00, 0x00, 0x00, 0x08, 0x00, 0x00, 0x00, 0x18, 0x00, 0x00, 0x00, 0x6c, 0x00, 0x00, 0x00, 0x5c, 0x00, 0x00, 0x00, 0x02, 0x00, 0x00, 0x00, 0x01, 0x00, 0x00, 0x00, 0x20, 0x00, 0x00, 0x00, 0x46, 0x00, 0x00, 0x00, 0x73, 0x65, 0x71, 0x75, 0x65, 0x6e, 0x74, 0x69, 0x61, 0x6c, 0x2f, 0x64, 0x65, 0x6e, 0x73, 0x65, 0x2f, 0x4d, 0x61, 0x74, 0x4d, 0x75, 0x6c, 0x3b, 0x73, 0x65, 0x71, 0x75, 0x65, 0x6e, 0x74, 0x69, 0x61, 0x6c, 0x2f, 0x64, 0x65, 0x6e, 0x73, 0x65, 0x2f, 0x52, 0x65, 0x6c, 0x75, 0x3b, 0x73, 0x65, 0x71, 0x75, 0x65, 0x6e, 0x74, 0x69, 0x61, 0x6c, 0x2f, 0x64, 0x65, 0x6e, 0x73, 0x65, 0x2f, 0x42, 0x69, 0x61, 0x73, 0x41, 0x64, 0x64, 0x00, 0x00, 0x02, 0x00, 0x00, 0x00, 0xff, 0xff, 0xff, 0xff, 0x20, 0x00, 0x00, 0x00, 0x80, 0xe6, 0xff, 0xff, 0x52, 0xe7, 0xff, 0xff, 0x04, 0x00, 0x00, 0x00, 0x90, 0x00, 0x00, 0x00, 0x6c, 0x92, 0x11, 0x3e, 0x75, 0x29, 0x9e, 0xbd, 0x73, 0xa7, 0x0e, 0xbf, 0xfe, 0x7f, 0x34, 0x3d, 0x32, 0x01, 0x9e, 0x3e, 0xfc, 0x7f, 0x08, 0x3e, 0xfb, 0x25, 0xe5, 0xbd, 0x74, 0xb0, 0xaf, 0xbd, 0x5f, 0x7f, 0x0f, 0xbe, 0xbf, 0x82, 0xc3, 0xbe, 0x76, 0x9a, 0x84, 0xbe, 0x0b, 0xe0, 0x15, 0x3e, 0x0d, 0xab, 0x5a, 0x3e, 0x16, 0xe2, 0x2b, 0xbd, 0x8d, 0x6b, 0xdd, 0xbe, 0x3c, 0x45, 0x9b, 0x3d, 0x01, 0xba, 0xc1, 0xbd, 0xf4, 0x1d, 0xf9, 0x3e, 0x7e, 0x4a, 0xfc, 0x3d, 0x6e, 0x11, 0x2f, 0x3e, 0x37, 0xeb, 0xcf, 0x3e, 0xa9, 0x11, 0xb0, 0xbe, 0x36, 0xa5, 0x8c, 0xbe, 0x26, 0x00, 0x06, 0x3f, 0xe4, 0x27, 0xd3, 0xbe, 0x0a, 0xbb, 0x2c, 0xbf, 0x14, 0xb7, 0xd3, 0xbe, 0x5d, 0x27, 0x8b, 0xbe, 0xad, 0x95, 0x10, 0x3e, 0xb9, 0x57, 0xa1, 0x3e, 0xd1, 0x3b, 0xad, 0x3d, 0x7f, 0x4d, 0xda, 0xbe, 0x69, 0x1b, 0xc0, 0x3e, 0xc8, 0x85, 0x5c, 0xbf, 0xa1, 0xc4, 0x61, 0xbf, 0x8f, 0x0c, 0x03, 0x3f, 0xce, 0xe7, 0xff, 0xff, 0x10, 0x00, 0x00, 0x00, 0x07, 0x00, 0x00, 0x00, 0x14, 0x00, 0x00, 0x00, 0x30, 0x00, 0x00, 0x00, 0x02, 0x00, 0x00, 0x00, 0x03, 0x00, 0x00, 0x00, 0x0c, 0x00, 0x00, 0x00, 0x19, 0x00, 0x00, 0x00, 0x73, 0x65, 0x71, 0x75, 0x65, 0x6e, 0x74, 0x69, 0x61, 0x6c, 0x2f, 0x64, 0x65, 0x6e, 0x73, 0x65, 0x5f, 0x32, 0x2f, 0x4d, 0x61, 0x74, 0x4d, 0x75, 0x6c, 0x00, 0x00, 0x00, 0x60, 0xe7, 0xff, 0xff, 0x32, 0xe8, 0xff, 0xff, 0x04, 0x00, 0x00, 0x00, 0x00, 0x06, 0x00, 0x00, 0x84, 0x25, 0x14, 0x3e, 0x08, 0x43, 0x84, 0xbe, 0x6f, 0x4f, 0x9e, 0x3e, 0x4d, 0xaa, 0xd8, 0xbc, 0x08, 0x20, 0xe5, 0xbd, 0x7d, 0xbf, 0x9a, 0xbe, 0x80, 0x4a, 0xeb, 0x3d, 0x91, 0x7a, 0x89, 0x3e, 0x11, 0x60, 0x4f, 0x3e, 0x4f, 0xd2, 0x4c, 0x3e, 0x4b, 0xdb, 0x10, 0xbe, 0x8d, 0x06, 0xc9, 0xbd, 0x7e, 0x67, 0xed, 0xbd, 0xc6, 0xd7, 0xc3, 0xbd, 0x5a, 0x83, 0x34, 0xbe, 0x2f, 0x5f, 0xb9, 0xbd, 0x8c, 0x1c, 0x96, 0x3e, 0x21, 0x19, 0x3c, 0xbe, 0x5d, 0xae, 0x9b, 0xbc, 0xa1, 0xa6, 0x93, 0x3d, 0xff, 0x57, 0xae, 0xbe, 0x46, 0x4e, 0x38, 0x3e, 0xbc, 0xfd, 0x85, 0xbe, 0xd6, 0x85, 0x73, 0x3e, 0x72, 0xb6, 0x3a, 0xbe, 0xae, 0x0c, 0xd2, 0xbd, 0x60, 0xb1, 0x5c, 0xbb, 0x4e, 0xf0, 0xb3, 0xbe, 0x62, 0xde, 0xf2, 0x3e, 0xa8, 0x40, 0x8b, 0xbe, 0x37, 0x6e, 0x46, 0x3e, 0x3e, 0x28, 0x97, 0x3e, 0x97, 0x88, 0x50, 0x3d, 0x1a, 0xf7, 0x1a, 0x3d, 0x6c, 0xd8, 0x92, 0x3d, 0x2f, 0xdb, 0xce, 0x3e, 0xd7, 0x25, 0x43, 0xbd, 0x0d, 0x71, 0x66, 0x3e, 0x03, 0x0c, 0x22, 0x3e, 0x25, 0x34, 0x26, 0x3e, 0x0f, 0xf0, 0x3d, 0x3e, 0xf9, 0x79, 0x85, 0xbb, 0xdd, 0x45, 0xa6, 0x3e, 0x89, 0x1d, 0x00, 0x3f, 0xdc, 0x8b, 0x12, 0xbe, 0x82, 0x9f, 0xaf, 0x3e, 0x9d, 0x67, 0x70, 0x3d, 0x4b, 0xc6, 0xc8, 0x3c, 0xcd, 0x4c, 0x0d, 0x3e, 0xa1, 0x78, 0xa5, 0x3d, 0xff, 0x56, 0x7e, 0xbe, 0xbb, 0x75, 0xff, 0x3d, 0x66, 0x3a, 0x8f, 0x3d, 0x3e, 0x9b, 0x87, 0x3e, 0x31, 0xf7, 0x29, 0x3c, 0x25, 0x78, 0x09, 0xbe, 0x93, 0x5c, 0x56, 0x3c, 0x15, 0xcb, 0x28, 0xbe, 0x20, 0x2b, 0xae, 0xbd, 0x4d, 0x7f, 0x85, 0xbc, 0x84, 0x29, 0x4d, 0x3e, 0x4d, 0xd5, 0x53, 0x3e, 0xbb, 0x76, 0x9d, 0x3e, 0xc7, 0x51, 0x99, 0x3e, 0xaa, 0x33, 0x87, 0x3e, 0xfb, 0xd4, 0xd7, 0x3d, 0x84, 0xd0, 0xa7, 0x3d, 0x4b, 0x88, 0x95, 0xbc, 0x7a, 0x9b, 0x76, 0xbe, 0x62, 0xdb, 0x56, 0x3e, 0x37, 0xee, 0xd0, 0x3d, 0x2f, 0x23, 0xd2, 0xbc, 0xd8, 0x62, 0x98, 0xbe, 0xa4, 0x0c, 0x93, 0xbe, 0xaf, 0x29, 0x97, 0xbd, 0xc7, 0x91, 0x0c, 0xbe, 0xd0, 0xec, 0x4b, 0xbe, 0x2b, 0xd0, 0x2a, 0x3e, 0x66, 0x99, 0x59, 0xbe, 0x1f, 0xc7, 0xd5, 0xbd, 0x26, 0x07, 0xc0, 0xbd, 0x2a, 0x01, 0x4f, 0x3e, 0x90, 0xcd, 0xf7, 0x3d, 0x0a, 0x8c, 0x48, 0x3e, 0x62, 0xc4, 0x5c, 0xbd, 0x29, 0xbd, 0xac, 0xbe, 0x00, 0x5a, 0x1b, 0x3a, 0x72, 0x79, 0x94, 0xbd, 0x7b, 0xfc, 0x7b, 0xbe, 0x5c, 0x52, 0xb8, 0x3d, 0xda, 0x7d, 0x45, 0xbe, 0x25, 0x73, 0xb5, 0xbe, 0x9a, 0x55, 0x00, 0xbe, 0x89, 0x75, 0xcb, 0xbe, 0xe4, 0x1a, 0x89, 0x3d, 0xbd, 0x21, 0xa7, 0xbd, 0xd4, 0x75, 0x0b, 0xbe, 0xc0, 0x46, 0x45, 0x3e, 0xfe, 0xa8, 0x72, 0x3e, 0x05, 0x26, 0xc6, 0x3d, 0x9f, 0x60, 0x47, 0xbe, 0xec, 0xcf, 0x68, 0xbe, 0xc0, 0x17, 0x65, 0x3d, 0x6a, 0x2c, 0xba, 0xbd, 0x90, 0xee, 0xbe, 0x3e, 0xa5, 0x28, 0x2f, 0x3e, 0xa2, 0x77, 0x0a, 0x3e, 0x96, 0xaf, 0x14, 0x3e, 0x7b, 0xc9, 0x7d, 0xbd, 0xe9, 0x95, 0x83, 0x3e, 0x37, 0xf0, 0x8b, 0x3e, 0x04, 0x13, 0x9d, 0xbd, 0xed, 0x0a, 0x83, 0x3e, 0x95, 0xf3, 0x2b, 0xbe, 0xe5, 0x10, 0xa7, 0x3e, 0x58, 0x9c, 0xc9, 0x3b, 0xcd, 0x45, 0xf1, 0xbc, 0xaf, 0x8b, 0xaf, 0x3d, 0xb0, 0x2e, 0x0c, 0x3e, 0xbb, 0x72, 0x06, 0x3d, 0xf6, 0xab, 0xf1, 0x3c, 0x3f, 0x3d, 0x02, 0x3e, 0x47, 0xd2, 0xf8, 0x3d, 0xd9, 0x4f, 0x8c, 0xbd, 0x51, 0xb1, 0xb4, 0x3e, 0xbf, 0xe7, 0x70, 0x3e, 0x44, 0x43, 0xb0, 0xbc, 0xb3, 0x8a, 0xa4, 0x3e, 0x33, 0xc6, 0xf1, 0x3d, 0xd8, 0x7f, 0xf2, 0xbd, 0x5e, 0x9c, 0x7b, 0x3e, 0x22, 0xd6, 0xe6, 0xbd, 0xf8, 0x5c, 0xfb, 0xbd, 0x90, 0x4f, 0x61, 0x3e, 0xab, 0x1b, 0xf0, 0x3d, 0xf6, 0x89, 0x90, 0x3d, 0xcf, 0xef, 0x64, 0xbd, 0xc8, 0xc8, 0xb9, 0xbe, 0xd3, 0x3f, 0xb1, 0x3d, 0x43, 0x77, 0x6d, 0x3e, 0xea, 0xd4, 0x36, 0xbc, 0xec, 0x8f, 0x22, 0xbe, 0xee, 0xb7, 0x84, 0xbe, 0x3e, 0x8d, 0xb9, 0xbe, 0xd8, 0xc8, 0xb8, 0xbe, 0xe7, 0x38, 0x15, 0xbd, 0xab, 0x32, 0x8c, 0xbd, 0x0e, 0x2d, 0xbb, 0x3d, 0xcf, 0x6f, 0x16, 0x3e, 0x03, 0xf2, 0x76, 0xbe, 0x6f, 0x02, 0x52, 0x3e, 0x03, 0xfe, 0x37, 0x3e, 0xe7, 0x42, 0x16, 0xbe, 0x3b, 0xaf, 0x00, 0xbe, 0xa7, 0xbb, 0x9b, 0xbd, 0xe2, 0x87, 0xaf, 0xbe, 0xf2, 0x26, 0x54, 0xbe, 0x44, 0x8c, 0x83, 0xbe, 0xc7, 0x87, 0xfe, 0x3d, 0x11, 0x36, 0x4e, 0xba, 0x48, 0x48, 0x7d, 0x3e, 0xe8, 0x96, 0x7e, 0xbe, 0x9f, 0x12, 0x94, 0x3e, 0xcc, 0xaf, 0x67, 0x3e, 0x76, 0x12, 0x5c, 0xbd, 0x79, 0x08, 0x8c, 0x3e, 0x78, 0xa2, 0x4d, 0xbe, 0xe5, 0xf0, 0x3d, 0x3e, 0x04, 0x7d, 0xfb, 0xbd, 0x4c, 0xe4, 0xc0, 0x3e, 0xc5, 0x7f, 0x9f, 0xbb, 0x00, 0x97, 0xde, 0x3d, 0x06, 0x04, 0x8c, 0xbe, 0x56, 0x72, 0xa8, 0xbd, 0xa4, 0x4a, 0xad, 0x3e, 0xfe, 0x3e, 0xc1, 0xbd, 0x78, 0x3a, 0x31, 0xbe, 0x63, 0x33, 0xaf, 0x3e, 0xd0, 0xbc, 0xac, 0x3e, 0xd2, 0x22, 0x82, 0xbe, 0x8d, 0xe7, 0xfc, 0x3d, 0x2d, 0xb7, 0x17, 0x3e, 0x56, 0x0c, 0x61, 0xbe, 0xb8, 0xdb, 0xe5, 0x3d, 0xbb, 0x63, 0x09, 0xbe, 0x3e, 0xe8, 0xe4, 0xbd, 0xc7, 0x90, 0xe4, 0x3d, 0x6c, 0x9b, 0x50, 0xbe, 0xb7, 0xe9, 0x60, 0xbb, 0x41, 0x8e, 0xb0, 0xbe, 0x72, 0xcf, 0xd5, 0x3d, 0x08, 0x94, 0xd6, 0xbd, 0x67, 0x49, 0xa0, 0x3e, 0x04, 0x27, 0xa5, 0xbd, 0x59, 0xdc, 0xb7, 0xbe, 0xb4, 0xa1, 0x8d, 0xbe, 0x8b, 0x2f, 0x86, 0xbe, 0xbe, 0xb6, 0xd2, 0x3d, 0x3a, 0x98, 0x43, 0xbe, 0x6d, 0x9e, 0x9a, 0xbd, 0xb2, 0x02, 0x14, 0xbd, 0x0a, 0x4c, 0xac, 0xbd, 0x19, 0x6c, 0xca, 0x3e, 0xff, 0x7f, 0xb0, 0x3e, 0x3c, 0xdf, 0x34, 0xbd, 0xa6, 0x0d, 0x83, 0x3e, 0xa2, 0x3f, 0xc1, 0x3e, 0x55, 0xa3, 0x95, 0xbd, 0x94, 0x24, 0xca, 0xbd, 0xe8, 0x32, 0x54, 0xbe, 0xc0, 0x8a, 0xbc, 0x3e, 0x27, 0x93, 0xd2, 0xbd, 0x56, 0xf8, 0xb9, 0xbe, 0x66, 0xef, 0x5b, 0x3d, 0x6a, 0x09, 0xec, 0xbd, 0x75, 0xe4, 0xa7, 0xbe, 0xbc, 0x24, 0x26, 0xbc, 0x85, 0x5f, 0x23, 0xbd, 0x3d, 0x7c, 0xb5, 0xbc, 0x7d, 0x47, 0x67, 0x3c, 0x72, 0xda, 0x79, 0x3d, 0x56, 0xcc, 0xad, 0xbd, 0x24, 0xaf, 0x5d, 0xbe, 0x19, 0x9e, 0x99, 0x3e, 0xae, 0x98, 0x4c, 0x3e, 0x2f, 0x7c, 0x60, 0x3e, 0x00, 0x61, 0xba, 0xba, 0x9e, 0xcc, 0x66, 0xbe, 0x07, 0xcf, 0x0a, 0xbe, 0x89, 0x38, 0x89, 0x3d, 0x53, 0x26, 0x79, 0xbe, 0x0c, 0xa2, 0x1d, 0xbe, 0xcf, 0xa9, 0x48, 0x3e, 0x0b, 0xb5, 0x2c, 0x3e, 0xf6, 0x4f, 0x86, 0xbe, 0xbd, 0x0f, 0x33, 0x3e, 0x50, 0x9a, 0xf5, 0xbd, 0x14, 0x3f, 0x38, 0x3e, 0xdb, 0xe4, 0x36, 0xbe, 0x2b, 0x77, 0xba, 0xbe, 0x59, 0x5c, 0x95, 0xbe, 0xf0, 0x9c, 0x41, 0x3e, 0xad, 0xfa, 0x29, 0x3e, 0x1e, 0x45, 0x3b, 0x3e, 0xf9, 0x45, 0x3a, 0x3e, 0x0f, 0x22, 0x8e, 0xbd, 0x02, 0x01, 0x0b, 0xbe, 0x6d, 0xdf, 0x67, 0xbe, 0xe3, 0x54, 0x68, 0xbe, 0xdf, 0xee, 0x92, 0x3e, 0x8f, 0xad, 0xd0, 0x3c, 0xcf, 0x74, 0xc2, 0xbe, 0xd3, 0x83, 0x80, 0xbe, 0x33, 0x8e, 0x1d, 0xbe, 0x24, 0x02, 0x20, 0x3d, 0xbf, 0x74, 0x97, 0x3e, 0xa2, 0x0f, 0x0c, 0xbe, 0x48, 0x96, 0xaa, 0xbe, 0x38, 0xfe, 0x62, 0x3d, 0x46, 0x01, 0xdb, 0x3e, 0x85, 0xbb, 0x95, 0xbb, 0x87, 0x5a, 0x66, 0x3d, 0xb5, 0x5e, 0x74, 0xbe, 0xd6, 0xab, 0x52, 0x3e, 0x15, 0xe0, 0x11, 0x3c, 0xd6, 0xf3, 0x8c, 0xbe, 0x9c, 0xa0, 0x80, 0x3e, 0x93, 0x32, 0xf8, 0xbd, 0x37, 0x71, 0x04, 0xbc, 0x57, 0x92, 0x44, 0xbe, 0x96, 0xdd, 0x94, 0xbe, 0x0e, 0xcc, 0xc9, 0xbc, 0xf7, 0x8f, 0xfa, 0x3d, 0xf1, 0xcb, 0xbd, 0xbd, 0x8f, 0x46, 0xca, 0x3e, 0x70, 0xce, 0x54, 0xbe, 0xbd, 0x5a, 0x11, 0x3e, 0xaf, 0x85, 0xd3, 0xbe, 0x19, 0x75, 0xa8, 0x3e, 0x3f, 0x82, 0xbc, 0xbe, 0x00, 0xce, 0x6e, 0xbc, 0x36, 0x78, 0x26, 0xbe, 0xa0, 0x70, 0x86, 0x3e, 0x32, 0xf4, 0x15, 0x3d, 0x38, 0x48, 0xc6, 0x3c, 0xd2, 0x93, 0xd2, 0xbd, 0x9a, 0x30, 0x00, 0xbe, 0x96, 0x54, 0xd8, 0x3d, 0xe4, 0x92, 0x4f, 0x3c, 0xcb, 0xcf, 0xa0, 0xbe, 0x12, 0x61, 0x0c, 0x3e, 0x9b, 0x47, 0x03, 0x3d, 0x59, 0x9c, 0x59, 0xbd, 0xbc, 0x61, 0x6c, 0x3e, 0x20, 0x5c, 0xbb, 0x3e, 0x83, 0x64, 0x86, 0xbe, 0x5d, 0x95, 0x21, 0x3d, 0x58, 0xed, 0x4d, 0x3e, 0x6f, 0xc4, 0xef, 0x3e, 0xc9, 0xb2, 0x1b, 0x3c, 0x3e, 0xa1, 0x72, 0x3c, 0x64, 0x4d, 0x67, 0x3e, 0xdc, 0xa8, 0xd7, 0x3e, 0x80, 0x80, 0xae, 0x3c, 0xa5, 0x0b, 0xd0, 0x3e, 0xbf, 0xb6, 0x8b, 0xbe, 0x6f, 0xc4, 0xcf, 0x3e, 0x15, 0xcd, 0x4f, 0xbe, 0xd7, 0xbb, 0x63, 0x3e, 0x5e, 0x90, 0x99, 0x3e, 0x89, 0x88, 0x85, 0x3e, 0x36, 0x28, 0x09, 0x3d, 0x49, 0x38, 0x04, 0x3d, 0x88, 0xec, 0x89, 0x3e, 0x7e, 0xe3, 0x96, 0x3d, 0x26, 0x3f, 0x20, 0xbd, 0xde, 0x67, 0x59, 0x3e, 0x95, 0x52, 0xac, 0x3e, 0xfe, 0x20, 0x76, 0xbe, 0x3f, 0x8b, 0x9b, 0x3e, 0x29, 0x31, 0x5c, 0xbe, 0x7e, 0x44, 0xdb, 0x3d, 0xea, 0x6c, 0x44, 0x3e, 0xc0, 0xc4, 0x29, 0xbe, 0x6b, 0x6f, 0x86, 0xbe, 0xa0, 0x33, 0x95, 0xbe, 0x69, 0x53, 0x73, 0x3e, 0x5c, 0x49, 0xdb, 0xbd, 0x0e, 0xb3, 0x6e, 0x3e, 0x06, 0x72, 0x00, 0xbe, 0x87, 0x13, 0x16, 0x3e, 0x39, 0xd6, 0xfc, 0xbd, 0x73, 0xcd, 0xcc, 0x3d, 0xbb, 0x48, 0x7d, 0xbe, 0x00, 0xad, 0xa6, 0xbe, 0xc5, 0x57, 0x36, 0x3d, 0x13, 0x8a, 0x47, 0x3b, 0x88, 0x27, 0xa6, 0x3c, 0x79, 0xbe, 0x24, 0xbe, 0xdf, 0x0e, 0x14, 0x3d, 0x91, 0xa7, 0x1b, 0xbe, 0xb5, 0xb4, 0xa3, 0x3d, 0x7a, 0x04, 0x4d, 0x3e, 0x31, 0xb9, 0xfe, 0x3c, 0x6a, 0x0c, 0x6f, 0xbd, 0x50, 0x79, 0xe7, 0xbd, 0xd4, 0xaf, 0x71, 0xbe, 0xe4, 0x10, 0x7e, 0xbe, 0xa6, 0x7f, 0xb7, 0xbd, 0x06, 0x3e, 0xfb, 0xbe, 0xf5, 0x62, 0x86, 0x3e, 0x03, 0xa1, 0x31, 0xbe, 0x05, 0x71, 0xe3, 0x3d, 0xd2, 0x67, 0x8b, 0x3e, 0x0b, 0xa3, 0x9a, 0x3e, 0x5b, 0xdd, 0xa2, 0x3e, 0xeb, 0x71, 0x27, 0x3d, 0x68, 0x39, 0xa0, 0xbe, 0xad, 0xf4, 0xaa, 0xbd, 0xe7, 0xfd, 0x4f, 0x3d, 0x15, 0xfc, 0x97, 0xbe, 0x91, 0x8d, 0xac, 0xbd, 0x67, 0xb8, 0x3d, 0x3e, 0x4d, 0x65, 0x94, 0x3e, 0x61, 0x87, 0xe1, 0xbc, 0x67, 0x7d, 0x31, 0x3e, 0x8c, 0x0f, 0xb9, 0x3e, 0x05, 0x6a, 0xdb, 0xbd, 0xdf, 0xc5, 0x1c, 0x3e, 0xca, 0x69, 0xa3, 0xbc, 0x99, 0xd8, 0xc4, 0x3d, 0x39, 0xf4, 0x8d, 0xbe, 0x07, 0xe6, 0xc6, 0x3c, 0x54, 0xab, 0x1b, 0x3e, 0x97, 0xea, 0xb0, 0xbd, 0xf7, 0xac, 0x9c, 0xbe, 0x9b, 0x9c, 0xdc, 0xbb, 0xbb, 0x95, 0x22, 0x3e, 0xf1, 0xb1, 0x6f, 0xbe, 0xc0, 0x5d, 0xf7, 0x3c, 0xe8, 0x42, 0xa9, 0xbe, 0x6e, 0x55, 0xd5, 0xbe, 0x25, 0x53, 0xde, 0x3d, 0xe7, 0x30, 0xa2, 0x3e, 0x1e, 0xee, 0xff, 0xff, 0x10, 0x00, 0x00, 0x00, 0x06, 0x00, 0x00, 0x00, 0x14, 0x00, 0x00, 0x00, 0x30, 0x00, 0x00, 0x00, 0x02, 0x00, 0x00, 0x00, 0x0c, 0x00, 0x00, 0x00, 0x20, 0x00, 0x00, 0x00, 0x19, 0x00, 0x00, 0x00, 0x73, 0x65, 0x71, 0x75, 0x65, 0x6e, 0x74, 0x69, 0x61, 0x6c, 0x2f, 0x64, 0x65, 0x6e, 0x73, 0x65, 0x5f, 0x31, 0x2f, 0x4d, 0x61, 0x74, 0x4d, 0x75, 0x6c, 0x00, 0x00, 0x00, 0xb0, 0xed, 0xff, 0xff, 0x82, 0xee, 0xff, 0xff, 0x04, 0x00, 0x00, 0x00, 0x00, 0x10, 0x00, 0x00, 0x9b, 0x70, 0xa0, 0xbd, 0xe7, 0x82, 0x39, 0x3d, 0xc1, 0xc5, 0x11, 0xbe, 0x59, 0xc8, 0xed, 0x3d, 0x3d, 0x03, 0xe3, 0x3d, 0x16, 0x62, 0x4f, 0xbe, 0x0e, 0x20, 0xc1, 0xbe, 0xea, 0x5b, 0x19, 0x3e, 0xc0, 0xa2, 0xa9, 0x3c, 0x09, 0xd0, 0x2c, 0x3e, 0xf6, 0xa4, 0x75, 0xbe, 0x2d, 0xbb, 0x40, 0xbd, 0x98, 0x83, 0xbe, 0xbe, 0xda, 0xe5, 0xc9, 0x3d, 0x11, 0xa6, 0x06, 0x3e, 0xcb, 0x5c, 0xa6, 0x3c, 0x1b, 0x01, 0xc2, 0xbe, 0x29, 0x7b, 0x17, 0xbe, 0x97, 0x05, 0x4e, 0x3d, 0x65, 0xc2, 0xfd, 0x3d, 0xad, 0xa1, 0xab, 0xbe, 0x24, 0x5a, 0x13, 0x3d, 0x72, 0x4a, 0x89, 0xbe, 0xf3, 0x74, 0x91, 0xbe, 0xe4, 0x11, 0xb3, 0xbd, 0x4c, 0x5d, 0xf3, 0xbd, 0x8a, 0x08, 0x18, 0xbb, 0x79, 0x31, 0xac, 0xbe, 0xd4, 0xc3, 0xbb, 0x3c, 0x9d, 0x84, 0x19, 0x3e, 0x1a, 0x19, 0x94, 0x3a, 0xa0, 0xd3, 0x35, 0xbe, 0xed, 0x87, 0x6d, 0xbd, 0xa7, 0x8e, 0x2b, 0xba, 0xcd, 0x65, 0x5d, 0xbe, 0x62, 0x81, 0x8a, 0xbe, 0x26, 0x0a, 0x81, 0xbe, 0xcc, 0x2e, 0x88, 0xbe, 0x8a, 0x73, 0x7b, 0xbe, 0xd7, 0x0b, 0xa5, 0xbe, 0xbf, 0xed, 0x1d, 0x3e, 0x30, 0x76, 0xb9, 0xbd, 0x05, 0x03, 0x51, 0x3b, 0x80, 0xd6, 0x84, 0x3e, 0x07, 0x7c, 0xe7, 0xbd, 0x61, 0x38, 0x8a, 0xbd, 0x8e, 0x55, 0xc8, 0x3d, 0xf2, 0x9c, 0xac, 0xbc, 0xa6, 0x3a, 0x04, 0x3e, 0x1f, 0x12, 0x39, 0x3e, 0x50, 0x99, 0x7c, 0xbe, 0x7d, 0xc7, 0x92, 0xbe, 0x70, 0x7a, 0xaa, 0xbd, 0xfc, 0x52, 0x0c, 0x3c, 0x3f, 0x33, 0x9b, 0xbd, 0xd0, 0xf0, 0xa5, 0xbc, 0xf5, 0xb5, 0x88, 0xbe, 0xb8, 0x58, 0x80, 0xbd, 0x84, 0xa0, 0x95, 0xbe, 0x3a, 0xc3, 0x8a, 0xbe, 0xd9, 0x02, 0x39, 0xbe, 0xc2, 0x49, 0xa7, 0xbd, 0x4b, 0x0e, 0x8e, 0x3d, 0x6b, 0x1e, 0xb9, 0xbd, 0x7a, 0x81, 0xb8, 0xbd, 0x00, 0x6f, 0x64, 0xbb, 0x5c, 0xe3, 0x66, 0xbe, 0x50, 0xbf, 0x81, 0xbe, 0xb2, 0xa5, 0x64, 0xbe, 0x08, 0xbe, 0x21, 0xbd, 0x0d, 0x1a, 0x86, 0xbe, 0x68, 0x04, 0x1e, 0x3e, 0xec, 0x76, 0xc1, 0x3d, 0x4e, 0xb1, 0x18, 0x3e, 0xd2, 0x76, 0x40, 0xbe, 0x04, 0xd5, 0xe1, 0xbd, 0xb2, 0x07, 0xc8, 0xbd, 0xce, 0x0c, 0x4a, 0xbe, 0x2a, 0xfd, 0x83, 0xbe, 0x38, 0x62, 0x34, 0x3e, 0xfc, 0xc3, 0x67, 0xbe, 0xac, 0x06, 0xec, 0x3d, 0x10, 0xcf, 0xcc, 0xbd, 0x40, 0x1d, 0xd4, 0x3d, 0x60, 0xb7, 0x8e, 0xbc, 0xfe, 0x34, 0xd2, 0xbd, 0x34, 0x18, 0x3e, 0x3e, 0x40, 0xea, 0xcd, 0x3c, 0x18, 0xf3, 0x12, 0xbe, 0xd8, 0x37, 0x29, 0x3d, 0x1a, 0x4b, 0xbd, 0xbd, 0x44, 0xd6, 0x30, 0xbe, 0x8f, 0x0f, 0x96, 0x3e, 0x3d, 0x04, 0x58, 0xbe, 0x86, 0xdd, 0xfd, 0xbd, 0xcd, 0xb5, 0x16, 0xbe, 0x01, 0xcd, 0x88, 0xbd, 0x15, 0x32, 0x89, 0xbe, 0x31, 0xae, 0x25, 0x3d, 0x79, 0xd0, 0x5c, 0xbc, 0x0d, 0x09, 0x4c, 0xbe, 0x06, 0x41, 0xbf, 0xbc, 0x9d, 0x8c, 0xb2, 0xbc, 0xee, 0x25, 0xa6, 0xbe, 0x13, 0xbf, 0xd0, 0xbd, 0x02, 0x3c, 0x78, 0xbd, 0x79, 0xae, 0x6a, 0xbe, 0xbc, 0x33, 0x9b, 0xbe, 0xd1, 0x81, 0xe2, 0xbd, 0xbf, 0x7d, 0x6c, 0x3d, 0x04, 0xfa, 0x2f, 0x3e, 0x34, 0x5e, 0x89, 0x3e, 0x68, 0x70, 0x84, 0x3d, 0x79, 0x32, 0x4d, 0x3e, 0xe3, 0x54, 0x58, 0xbe, 0xd5, 0x03, 0x93, 0x3b, 0x25, 0xfb, 0x7b, 0x3e, 0xcf, 0x9e, 0x69, 0x3e, 0xd4, 0xc3, 0x54, 0x3e, 0x24, 0x07, 0xfd, 0x3b, 0x18, 0x52, 0x90, 0x3c, 0x63, 0xf6, 0xad, 0xbe, 0x9f, 0x7d, 0xed, 0xbd, 0x27, 0xbf, 0x79, 0xbd, 0x9b, 0xdf, 0xb8, 0xbe, 0x57, 0x7a, 0xa4, 0xbe, 0xe3, 0x60, 0xe8, 0xbd, 0xef, 0x47, 0x5a, 0x3e, 0xa5, 0xac, 0x94, 0xbe, 0x97, 0xb8, 0x1b, 0xbe, 0x11, 0xc9, 0xc6, 0x3e, 0x8b, 0xe8, 0xba, 0xbd, 0xe4, 0x7a, 0x1b, 0xbe, 0xb4, 0x5d, 0x18, 0xbe, 0x89, 0x65, 0x9e, 0xbe, 0xf3, 0x15, 0x1f, 0xbe, 0xf2, 0x2a, 0x18, 0xbe, 0xde, 0x44, 0xf9, 0x3e, 0x8b, 0x12, 0x67, 0x3e, 0xf7, 0xfd, 0x0a, 0xbd, 0xfa, 0xc1, 0x46, 0x3e, 0x63, 0x24, 0xc1, 0x3c, 0x41, 0xca, 0xb4, 0xbd, 0xeb, 0x82, 0x9e, 0xbe, 0xa4, 0x39, 0xee, 0x3d, 0xda, 0xde, 0xdd, 0x3d, 0x53, 0x8f, 0x08, 0xbe, 0x08, 0x30, 0xe1, 0xbd, 0x2a, 0x36, 0x55, 0xbe, 0x9d, 0x96, 0x9b, 0x3e, 0xb4, 0xa3, 0xad, 0x3d, 0x04, 0x1d, 0x0e, 0xbd, 0x23, 0x6d, 0x85, 0x3b, 0xea, 0x36, 0x77, 0xbd, 0xfc, 0x38, 0x52, 0xbe, 0xa1, 0x65, 0xcf, 0x3e, 0xd0, 0x68, 0x99, 0x3e, 0xbe, 0x4d, 0xcb, 0x3d, 0x7e, 0x9d, 0x1a, 0xbc, 0x04, 0xb8, 0x54, 0xbb, 0x2e, 0x9b, 0x21, 0xbd, 0xe1, 0x82, 0xd5, 0x3d, 0xe2, 0x4c, 0x0e, 0xbc, 0xaf, 0xb6, 0xa6, 0xbd, 0xfe, 0xf7, 0x54, 0x3d, 0x2d, 0x58, 0x03, 0x3e, 0xdd, 0x8b, 0xb0, 0x3d, 0x88, 0xde, 0x6b, 0xbe, 0x98, 0x6c, 0x6d, 0xbe, 0x7f, 0x6a, 0xf5, 0xbc, 0x76, 0x8a, 0xc0, 0x3d, 0x1b, 0x63, 0x84, 0xbe, 0xe1, 0x22, 0xb4, 0xbe, 0xbf, 0x03, 0xdd, 0xbd, 0x88, 0xe9, 0x0c, 0xbe, 0x17, 0xe7, 0xb8, 0x3d, 0x27, 0x8e, 0xb1, 0xbd, 0xa5, 0x07, 0xbb, 0xbd, 0x2e, 0x10, 0x3a, 0xbd, 0x2b, 0x98, 0x7f, 0xbe, 0x85, 0xf1, 0x51, 0xbd, 0x4f, 0xe0, 0x04, 0xbd, 0xa1, 0x5b, 0x0d, 0xbd, 0xa3, 0x06, 0x29, 0xbe, 0xf6, 0x9f, 0x27, 0xbe, 0x5c, 0x85, 0x5d, 0xbe, 0xe8, 0x8d, 0xa6, 0xbe, 0x84, 0xdf, 0x55, 0x3e, 0x3e, 0x88, 0x3b, 0x3d, 0xfa, 0x22, 0x8e, 0xbe, 0xf9, 0x8d, 0xaf, 0x3d, 0xae, 0x88, 0x4f, 0xbd, 0x08, 0x39, 0x88, 0x3d, 0x1b, 0x80, 0x3a, 0xbe, 0x05, 0x92, 0x3d, 0xbe, 0x8b, 0xbd, 0xcb, 0x3c, 0x7d, 0x30, 0x52, 0xbd, 0xf0, 0x85, 0x62, 0xbe, 0xb3, 0x01, 0x8b, 0x3c, 0x15, 0xf7, 0x9d, 0x3c, 0x70, 0xdb, 0x92, 0xbc, 0xd0, 0xed, 0xa0, 0xbd, 0x98, 0x26, 0x51, 0x3e, 0x10, 0x96, 0xb0, 0xbe, 0xcd, 0x00, 0xd1, 0xbd, 0x6e, 0xc4, 0x7b, 0x3d, 0xf9, 0x38, 0x86, 0xbe, 0x82, 0x42, 0x9e, 0xbe, 0xe5, 0xcd, 0x6f, 0xbd, 0xb0, 0x9d, 0x25, 0xbe, 0x0c, 0x98, 0x3d, 0xbe, 0x97, 0xb3, 0xa8, 0x3d, 0xb4, 0xa8, 0x94, 0x3d, 0xa5, 0x53, 0x05, 0x3e, 0x63, 0x03, 0xa9, 0xbd, 0xba, 0xee, 0x3c, 0x3e, 0xd8, 0x42, 0x96, 0x3d, 0xca, 0xe7, 0x36, 0x3e, 0xbb, 0x45, 0xcf, 0x3c, 0x42, 0x75, 0xaa, 0xbc, 0x78, 0x5b, 0xa1, 0xbe, 0xc6, 0x5c, 0x55, 0xbe, 0x83, 0x6e, 0xc3, 0xbd, 0xb1, 0x45, 0xc4, 0xbe, 0xf8, 0xdf, 0xa7, 0x3d, 0x27, 0xe3, 0xce, 0xbb, 0xf6, 0x91, 0x21, 0xbe, 0xc9, 0xad, 0xb6, 0x3d, 0x51, 0x79, 0x4c, 0xbd, 0x15, 0x8d, 0x0a, 0x3e, 0xb5, 0x6b, 0xc8, 0xbd, 0x45, 0x3f, 0xd6, 0x3d, 0x6c, 0x64, 0x9c, 0xbe, 0xf5, 0xbc, 0x9a, 0x3d, 0x83, 0xab, 0x22, 0xbe, 0x21, 0x8f, 0x07, 0x3e, 0x00, 0x37, 0x0a, 0xbc, 0xb2, 0x98, 0x29, 0xbe, 0xea, 0x41, 0x42, 0x3e, 0xa7, 0x5d, 0x2c, 0x3e, 0x57, 0x52, 0x8a, 0xbe, 0xe6, 0x1d, 0x0e, 0x3d, 0xc7, 0xfe, 0xbf, 0xbe, 0x89, 0xc6, 0xfe, 0xbc, 0x2f, 0xb8, 0x43, 0xbe, 0xa3, 0xa0, 0xd1, 0xbd, 0xaa, 0xb5, 0x36, 0xbe, 0xc8, 0xec, 0xd6, 0x3d, 0xe8, 0xe7, 0xc9, 0xbd, 0xe5, 0x62, 0x48, 0xbe, 0xb7, 0x7d, 0x39, 0xbe, 0xcb, 0x93, 0x96, 0xbd, 0xb8, 0xc1, 0x4f, 0x3d, 0x0f, 0x67, 0x64, 0xbe, 0x77, 0x0c, 0x1e, 0xbc, 0x44, 0xb4, 0xa1, 0xbe, 0x1d, 0x34, 0x25, 0xbe, 0xf0, 0xe1, 0x25, 0xbe, 0x7c, 0x57, 0xb7, 0xbd, 0x8d, 0x04, 0x82, 0xbe, 0xf2, 0x5b, 0x4e, 0x3d, 0xa5, 0x8a, 0x6d, 0xbe, 0x3e, 0x54, 0x28, 0x3e, 0x87, 0x67, 0x39, 0x3e, 0x47, 0x9f, 0x60, 0x3e, 0x14, 0x1d, 0x1d, 0x3d, 0x10, 0x7d, 0x29, 0xbe, 0x21, 0x0c, 0xbf, 0xbd, 0x57, 0xa9, 0x94, 0xbe, 0x3e, 0xcf, 0x19, 0x3e, 0x10, 0xa4, 0xd9, 0x3c, 0x32, 0x1c, 0x77, 0xbe, 0x94, 0x9c, 0xb6, 0xbd, 0x6d, 0x2c, 0x89, 0x3e, 0x84, 0xcb, 0x77, 0x3e, 0x49, 0x69, 0x3a, 0xbe, 0x1a, 0xb1, 0x0d, 0x3c, 0x33, 0x95, 0x2b, 0xbd, 0x12, 0x45, 0x8c, 0xbe, 0x8b, 0x9d, 0x36, 0xbd, 0x5b, 0xa1, 0xf9, 0xbd, 0xe7, 0x8e, 0xd7, 0x3d, 0x8c, 0x57, 0xa1, 0xbe, 0xe8, 0xad, 0xa2, 0xbe, 0xfb, 0xc5, 0x33, 0x3e, 0x89, 0xe8, 0x96, 0xbe, 0x93, 0x63, 0x79, 0xbd, 0x2f, 0x71, 0x91, 0xbe, 0xf8, 0x03, 0x6b, 0xbe, 0xce, 0xd2, 0xc0, 0x3d, 0x81, 0xb9, 0x27, 0xbe, 0xae, 0xe6, 0x8d, 0xbe, 0xe2, 0x7a, 0x65, 0xbe, 0x91, 0x28, 0xc1, 0x3d, 0xbe, 0xfa, 0x78, 0x3e, 0xd9, 0xe2, 0xf2, 0x3c, 0x14, 0x9a, 0x53, 0xbe, 0xda, 0xab, 0x40, 0xbe, 0x1b, 0x99, 0x9f, 0xbd, 0xdf, 0x3b, 0x6b, 0xbe, 0xa2, 0xac, 0x6a, 0x3c, 0x40, 0xbb, 0xa9, 0x3c, 0x1c, 0xed, 0xd8, 0x3d, 0xed, 0x0c, 0x1d, 0xbe, 0x40, 0xbd, 0xb6, 0x3e, 0x4a, 0x4d, 0x51, 0xbe, 0xa7, 0xda, 0x53, 0xbe, 0xcb, 0x5a, 0x39, 0x3d, 0x56, 0x4a, 0x96, 0x3e, 0xc3, 0x0b, 0x80, 0x3e, 0xec, 0x7e, 0xf3, 0x3c, 0xd0, 0x64, 0xa4, 0x3e, 0xb3, 0x46, 0x39, 0xbe, 0xa9, 0xa8, 0x25, 0xbe, 0x26, 0x07, 0x73, 0x3e, 0x82, 0x18, 0x8e, 0xbe, 0x37, 0xf7, 0x5d, 0xbe, 0xe8, 0xfd, 0x28, 0x3e, 0x9f, 0xf8, 0x5f, 0xbd, 0xd6, 0x56, 0x01, 0x3d, 0x82, 0xc3, 0x71, 0xbe, 0xcd, 0x7e, 0x23, 0x3e, 0x46, 0x13, 0xef, 0xbd, 0x11, 0xcb, 0x27, 0x3c, 0x89, 0x6d, 0x29, 0x3e, 0x27, 0xcb, 0xc4, 0xbe, 0xcf, 0x32, 0x81, 0x3d, 0xc0, 0x07, 0x5a, 0xbe, 0x7e, 0x46, 0x97, 0xbd, 0x81, 0x9f, 0x54, 0x3d, 0x9d, 0x4c, 0x97, 0xbe, 0xc4, 0xe2, 0x28, 0xbe, 0xc1, 0x57, 0xbd, 0x3d, 0x2b, 0xa2, 0xbd, 0x3d, 0x44, 0x54, 0xc8, 0xbe, 0xae, 0x2c, 0xc7, 0xbd, 0x92, 0x22, 0x9a, 0x3d, 0x90, 0xb9, 0x03, 0x3e, 0xef, 0x89, 0x0c, 0x3d, 0xe9, 0xad, 0x58, 0xbe, 0xc0, 0xb6, 0xa3, 0xbe, 0xca, 0x91, 0x4a, 0x3e, 0x29, 0x06, 0x67, 0xbd, 0xd9, 0x1b, 0x81, 0x3d, 0x07, 0xd3, 0x0b, 0x3d, 0x06, 0xbd, 0xab, 0xbe, 0x23, 0x4e, 0x2a, 0xbe, 0x81, 0xab, 0xb0, 0xbe, 0x08, 0x5d, 0x1a, 0xbe, 0xb7, 0x93, 0x3d, 0xbc, 0xea, 0x1c, 0x1d, 0xbe, 0xfb, 0x92, 0x31, 0xbe, 0x2a, 0x9a, 0xa8, 0x3d, 0xe4, 0xad, 0xa2, 0xbe, 0x86, 0x3c, 0x15, 0x3d, 0x0a, 0x7d, 0xab, 0xbe, 0x18, 0xa1, 0x14, 0x3e, 0x42, 0x2c, 0x63, 0x3d, 0x9a, 0x93, 0x03, 0xbc, 0x98, 0xf1, 0x15, 0x3e, 0xda, 0xfb, 0x56, 0xbd, 0x44, 0x67, 0xb4, 0xbe, 0x53, 0x0a, 0xb2, 0xbd, 0x60, 0x66, 0x22, 0x3e, 0x6c, 0xa0, 0xd9, 0x3d, 0x95, 0x0b, 0xaf, 0xbe, 0x2e, 0x24, 0x08, 0xbe, 0x32, 0xd0, 0xef, 0xbd, 0xca, 0x4c, 0x4b, 0xbe, 0x02, 0xcc, 0xfd, 0x3d, 0xbe, 0xdb, 0x01, 0xbe, 0x13, 0x94, 0xe9, 0x3d, 0xb0, 0x58, 0x71, 0xbe, 0x8f, 0xde, 0x29, 0xbe, 0x68, 0x67, 0x55, 0x3e, 0x65, 0x6d, 0xea, 0xbd, 0xc8, 0xe5, 0x8d, 0xbd, 0x0a, 0xa6, 0xa0, 0xbe, 0x4f, 0xa6, 0x92, 0xbe, 0x6e, 0x83, 0xbf, 0xbe, 0xd3, 0xed, 0x2a, 0x3e, 0x27, 0xde, 0x43, 0xbe, 0xc1, 0xfe, 0x48, 0xbe, 0x16, 0x33, 0x4c, 0xbe, 0xff, 0xe8, 0x58, 0xbe, 0x8d, 0x9d, 0x23, 0x3e, 0x91, 0x8a, 0xd7, 0x3d, 0x41, 0x1d, 0x21, 0xbc, 0x0b, 0xc4, 0x13, 0x3e, 0xa5, 0xb6, 0x18, 0x3d, 0x84, 0xd2, 0x92, 0x3c, 0xaa, 0x22, 0x94, 0xbe, 0x17, 0x41, 0x0e, 0xbd, 0xac, 0x6f, 0xce, 0xbc, 0xa7, 0x5f, 0x74, 0x3e, 0x35, 0x51, 0x6f, 0x3d, 0xce, 0x2c, 0xa3, 0x3e, 0x5f, 0x8a, 0x01, 0x3e, 0x8a, 0x3c, 0x89, 0x3e, 0xb1, 0xb6, 0xb2, 0x3d, 0x59, 0x89, 0x8e, 0xbe, 0x87, 0x2f, 0x47, 0xbe, 0xda, 0xc5, 0x23, 0xbf, 0x91, 0xdf, 0xf7, 0xbd, 0x18, 0xef, 0x9a, 0xbe, 0x75, 0xfe, 0x77, 0xbe, 0x3d, 0x38, 0xa4, 0xbd, 0x93, 0x21, 0x9e, 0xbe, 0xd9, 0x4a, 0x48, 0xbd, 0x91, 0x42, 0x83, 0xbe, 0x0f, 0xde, 0x0d, 0xbf, 0xe3, 0xfb, 0xc2, 0xbe, 0x7c, 0xd3, 0xaf, 0xbd, 0x51, 0xb5, 0x21, 0xbf, 0xca, 0x28, 0x1c, 0xbe, 0x5e, 0xc5, 0x4f, 0xbd, 0xf9, 0x02, 0xe9, 0xbc, 0x1f, 0x78, 0x80, 0xbd, 0x10, 0xf7, 0x8b, 0xbe, 0xb4, 0xd3, 0x9d, 0x3e, 0x7c, 0xd3, 0x99, 0xbd, 0x26, 0xdb, 0xa7, 0xbe, 0x21, 0xdb, 0x5e, 0x3e, 0x3a, 0x2d, 0x20, 0x3d, 0xda, 0x04, 0x56, 0x3d, 0xcc, 0x88, 0x18, 0xbe, 0xd6, 0x88, 0x09, 0x3c, 0xcc, 0xd0, 0x73, 0xbe, 0xf1, 0xee, 0xd8, 0xbc, 0x37, 0x19, 0xb0, 0x3c, 0xb1, 0x38, 0x94, 0xbe, 0x3c, 0x03, 0xd2, 0xbd, 0x6a, 0x5a, 0x81, 0xbc, 0x23, 0x35, 0x19, 0xbe, 0x92, 0xed, 0x75, 0xbe, 0xdf, 0x1b, 0x44, 0x3d, 0x43, 0x8c, 0x60, 0xbd, 0x38, 0x19, 0x6c, 0x3d, 0x68, 0x43, 0x5c, 0xbe, 0x33, 0x5b, 0x64, 0xbd, 0x94, 0x04, 0xf6, 0xbd, 0xaf, 0x44, 0xc6, 0xbd, 0x8e, 0x21, 0x97, 0x3e, 0x0e, 0xd3, 0x37, 0xbe, 0xe4, 0x44, 0x3a, 0xbc, 0xa5, 0xd2, 0x5f, 0x3e, 0x24, 0x97, 0xb8, 0xbe, 0x39, 0x6b, 0x1f, 0xbe, 0x0a, 0xeb, 0x94, 0xbd, 0x5e, 0xaa, 0x90, 0xbc, 0x1a, 0x93, 0x17, 0x3e, 0xbe, 0x27, 0x79, 0x3e, 0x7e, 0xbe, 0x38, 0xbe, 0xdb, 0x23, 0xa4, 0xbc, 0x42, 0xbb, 0xd4, 0xbd, 0x58, 0xd7, 0x3e, 0x3d, 0x0f, 0x4f, 0x17, 0x3e, 0xf7, 0xa9, 0x91, 0xbe, 0x7f, 0x80, 0x11, 0xbe, 0xcf, 0x27, 0x09, 0xbe, 0xe5, 0x06, 0x5d, 0x3e, 0x27, 0x43, 0xea, 0xbe, 0x3a, 0xd2, 0x24, 0xbe, 0xb6, 0xad, 0x8b, 0x3c, 0xc3, 0xbd, 0x63, 0xbd, 0xdb, 0x98, 0x2c, 0x3d, 0x36, 0x39, 0x16, 0x3d, 0x06, 0x59, 0xdb, 0xbc, 0x7f, 0x0c, 0xe8, 0x3d, 0xc2, 0xc2, 0x99, 0xbe, 0xf8, 0xac, 0xf3, 0x3d, 0xc5, 0x0c, 0x74, 0xbe, 0x8d, 0x17, 0x56, 0x3e, 0x82, 0x59, 0x51, 0xbe, 0xcf, 0xc6, 0x76, 0xbe, 0x40, 0x92, 0x67, 0xbd, 0x56, 0x2c, 0xc9, 0x3d, 0x72, 0xfc, 0x09, 0x3d, 0xa5, 0x3d, 0x17, 0x3e, 0xfb, 0xf8, 0xf0, 0xbd, 0x0a, 0xa6, 0xfc, 0x3d, 0x95, 0x56, 0x05, 0xbe, 0xba, 0x24, 0x87, 0x3e, 0x04, 0x08, 0xb7, 0xbd, 0x22, 0x71, 0x27, 0xbe, 0x3f, 0xd5, 0xa3, 0x3e, 0xa2, 0x88, 0xe4, 0x3d, 0x65, 0x9c, 0x84, 0x3d, 0xeb, 0xf0, 0x01, 0xbe, 0x81, 0x8f, 0x90, 0x3c, 0x37, 0xe8, 0xbc, 0xbb, 0x72, 0x32, 0xbe, 0xbd, 0xb5, 0xbb, 0x50, 0x3e, 0x4a, 0x22, 0xfd, 0xbe, 0x1d, 0xc8, 0x14, 0x3d, 0x83, 0x96, 0xf0, 0x3e, 0xa9, 0x5b, 0xa3, 0x3c, 0x6b, 0xcf, 0x18, 0x3d, 0x92, 0xc5, 0x48, 0x3e, 0xcf, 0x74, 0x5f, 0xbe, 0xfa, 0x4d, 0x61, 0xbd, 0x0d, 0x41, 0xda, 0xbe, 0xb3, 0xc4, 0x68, 0xbe, 0x72, 0x78, 0x37, 0xbd, 0x56, 0x07, 0x89, 0x3d, 0x75, 0xf3, 0x66, 0xbe, 0x07, 0x0c, 0x57, 0xbe, 0xc3, 0x95, 0xa8, 0xbd, 0xac, 0x59, 0x09, 0xbf, 0x0c, 0x3e, 0x8a, 0xbe, 0x81, 0xfa, 0xef, 0xbe, 0xce, 0xae, 0xe2, 0x3d, 0xcc, 0x45, 0x42, 0xbe, 0x9c, 0x99, 0x4d, 0x3e, 0xf8, 0xe4, 0xb1, 0xbe, 0x5b, 0xf8, 0x9d, 0xbe, 0x17, 0x1c, 0x8c, 0x3e, 0xcd, 0xbe, 0x8e, 0x3d, 0x8f, 0xfd, 0x26, 0x3e, 0x65, 0x13, 0x17, 0x3d, 0x45, 0xd0, 0xa0, 0x3d, 0x2c, 0xb3, 0xd1, 0xbe, 0xe6, 0xb1, 0x8b, 0x3d, 0xc9, 0xd3, 0xa6, 0xbe, 0x7e, 0xaa, 0xb7, 0xbd, 0xfe, 0xde, 0x6e, 0x3e, 0x98, 0x2e, 0x28, 0xbd, 0x6c, 0x84, 0x79, 0xbe, 0x50, 0x5f, 0x0b, 0x3e, 0x20, 0x2d, 0x09, 0x3e, 0xef, 0x0a, 0x7d, 0x3e, 0x0b, 0xca, 0x4e, 0x3b, 0x5b, 0xb2, 0xb4, 0x3d, 0xee, 0x5a, 0x4e, 0xbe, 0x89, 0xf4, 0x15, 0xbe, 0x8e, 0x70, 0x20, 0x3e, 0x5d, 0xda, 0xbb, 0x3d, 0x11, 0xd9, 0x82, 0xbe, 0x95, 0xb4, 0x9b, 0xbc, 0x82, 0xd7, 0x0b, 0xbe, 0x7c, 0x62, 0x11, 0x3e, 0xab, 0x89, 0xd9, 0xbd, 0xc2, 0x78, 0x2a, 0x3e, 0x6d, 0x8e, 0xa0, 0xbd, 0x26, 0xa9, 0x9f, 0xbb, 0xc3, 0xf2, 0xff, 0xbd, 0xcc, 0xcd, 0x0b, 0xbe, 0x3e, 0xbf, 0xf6, 0xbd, 0xbc, 0xff, 0x9c, 0x3c, 0x94, 0xd9, 0x8f, 0xbe, 0xdf, 0xa6, 0x94, 0xbe, 0xd5, 0x12, 0xa7, 0x3d, 0x7f, 0x4c, 0xa1, 0xbd, 0x7b, 0x43, 0xe5, 0xbd, 0xed, 0xa9, 0x83, 0xbd, 0x55, 0xe2, 0x7d, 0xbe, 0x07, 0x7a, 0x36, 0x3e, 0xb1, 0xcb, 0x9c, 0x3d, 0x7b, 0x44, 0x8f, 0xbd, 0x66, 0x21, 0xf6, 0xbd, 0x6b, 0x7c, 0x62, 0xbe, 0xfa, 0x97, 0xa0, 0x3d, 0x23, 0x41, 0x72, 0xbe, 0xcd, 0xf5, 0x17, 0x3c, 0x60, 0xe5, 0x56, 0x3e, 0x9e, 0xe4, 0x4c, 0x3b, 0x0e, 0x32, 0x13, 0x3a, 0xc6, 0xe3, 0x6c, 0x3e, 0xf8, 0xea, 0x8d, 0xbd, 0xac, 0x70, 0xf7, 0x3d, 0x40, 0x39, 0xd0, 0x3d, 0xb9, 0xf8, 0x61, 0x3e, 0xf5, 0x61, 0x12, 0xbe, 0x52, 0x2b, 0xcd, 0xbb, 0x07, 0x75, 0x5f, 0xbd, 0x4a, 0xc3, 0xe2, 0xbd, 0xa5, 0x31, 0xcf, 0xbd, 0x89, 0xf2, 0x01, 0xbd, 0xd8, 0x84, 0x65, 0x3e, 0xfb, 0x34, 0x95, 0x3e, 0x48, 0x1b, 0x43, 0xbe, 0xd4, 0xf3, 0x8f, 0xbe, 0x3a, 0xff, 0x81, 0x3e, 0xe5, 0xc9, 0x71, 0xbe, 0x21, 0x7b, 0xa5, 0x3d, 0xc2, 0x35, 0x08, 0x3a, 0xb1, 0x5b, 0x23, 0xbe, 0x2d, 0x39, 0xad, 0xbe, 0xdb, 0xaa, 0x87, 0xbc, 0x68, 0x9e, 0xd2, 0xbe, 0xa8, 0x0b, 0x06, 0xbe, 0xf7, 0xbe, 0x77, 0xbe, 0x42, 0x77, 0x5d, 0xbc, 0xa8, 0x65, 0xb0, 0x3d, 0xa5, 0xda, 0x3b, 0x3e, 0xe3, 0x0d, 0xb5, 0x3d, 0x30, 0x56, 0x7f, 0xbe, 0xed, 0x78, 0xa4, 0x3d, 0x49, 0xf8, 0x5d, 0xbe, 0x96, 0x79, 0x93, 0xbb, 0x88, 0x89, 0x83, 0x3d, 0x3a, 0x1f, 0xce, 0xbd, 0x3f, 0x45, 0x3b, 0xbd, 0xf7, 0xb1, 0x2c, 0xbe, 0x49, 0x48, 0x1c, 0x3e, 0x5f, 0x51, 0xbd, 0xbd, 0x4e, 0x76, 0x34, 0x3e, 0xb5, 0xe5, 0x85, 0x3c, 0x64, 0x33, 0x7f, 0xbe, 0x38, 0x1a, 0x39, 0xbd, 0x59, 0x7b, 0x79, 0xbe, 0x1e, 0x9b, 0xf8, 0x3d, 0x71, 0xfa, 0x19, 0x3e, 0xca, 0xe6, 0xe2, 0xbd, 0x75, 0xc5, 0x3b, 0xbe, 0xdb, 0xc1, 0x04, 0x3e, 0x22, 0x88, 0x84, 0xbe, 0x12, 0xca, 0x65, 0xbe, 0x9d, 0xc6, 0x4b, 0x3e, 0x96, 0xf1, 0x89, 0x3c, 0x50, 0xeb, 0x98, 0xbe, 0xf6, 0x3a, 0x10, 0xbd, 0x86, 0x8b, 0x8c, 0xbe, 0xbe, 0xf2, 0x9a, 0x3d, 0x9e, 0xc6, 0xbc, 0x3d, 0x95, 0x42, 0x9d, 0xbe, 0x15, 0x77, 0x76, 0xbe, 0x2c, 0x3f, 0x44, 0xbe, 0xaf, 0x15, 0x1a, 0xbd, 0x14, 0xf5, 0x21, 0x3d, 0x66, 0x15, 0x85, 0xbe, 0x39, 0xb6, 0xa4, 0x3d, 0xe9, 0x92, 0x95, 0xbe, 0x68, 0xc6, 0x16, 0x3e, 0xed, 0x3c, 0xba, 0xbd, 0x1c, 0x40, 0x29, 0x3e, 0xcb, 0xca, 0x5a, 0x3e, 0x5e, 0xf5, 0x29, 0xbe, 0xb7, 0x0a, 0xb0, 0xbe, 0xb9, 0x9e, 0x51, 0xbe, 0xf0, 0xa3, 0x81, 0xbd, 0x23, 0x98, 0xdc, 0x3d, 0xa4, 0xcc, 0x7b, 0xbe, 0xee, 0x15, 0x44, 0xbd, 0xfe, 0x4b, 0xde, 0x3d, 0x2e, 0x84, 0xa6, 0xbd, 0x49, 0x4a, 0x56, 0xbe, 0xa8, 0x77, 0xa9, 0xbd, 0xcc, 0xd5, 0x21, 0xbe, 0x00, 0x81, 0xc4, 0xbe, 0x1d, 0x10, 0x95, 0x3c, 0x3e, 0x9d, 0xcf, 0xbe, 0x95, 0xa8, 0x11, 0x3e, 0xf3, 0xb5, 0xd2, 0xbd, 0x4e, 0xec, 0x55, 0x3d, 0x2c, 0x8b, 0xe8, 0xbd, 0xea, 0x74, 0x93, 0x3d, 0xf7, 0xbb, 0x12, 0xbd, 0xe2, 0x1c, 0x8a, 0x3d, 0xf9, 0xd4, 0xdd, 0xbc, 0x9a, 0x47, 0x9b, 0xbe, 0x76, 0x57, 0xee, 0xbd, 0x2e, 0x92, 0x2a, 0x3e, 0x46, 0x98, 0x18, 0xbe, 0x87, 0x96, 0x9b, 0xbe, 0x3d, 0x82, 0x3a, 0xbd, 0x4a, 0x36, 0x5d, 0x3d, 0xbc, 0x8a, 0x40, 0x3e, 0x06, 0xac, 0x90, 0xbe, 0xf9, 0x6b, 0x22, 0x3d, 0x43, 0x57, 0xd3, 0x3c, 0xb5, 0x4d, 0x8a, 0xbe, 0xf9, 0x67, 0x00, 0x3c, 0xb2, 0x04, 0xaa, 0x3d, 0x52, 0xbf, 0x86, 0xbe, 0x97, 0x8e, 0x98, 0x3d, 0x9a, 0x11, 0x89, 0x3e, 0x3d, 0xec, 0x69, 0xbe, 0x29, 0x70, 0x7f, 0x3e, 0x40, 0xa1, 0x24, 0xbe, 0xbb, 0x68, 0x66, 0x3d, 0x3a, 0x7b, 0xfc, 0xbc, 0xab, 0xd0, 0xf2, 0x3d, 0x21, 0x92, 0x53, 0xbe, 0xc5, 0x42, 0x8a, 0xbe, 0x7a, 0x1f, 0x1f, 0x3d, 0xb1, 0x79, 0x9c, 0xbe, 0x85, 0x75, 0xe6, 0x3d, 0xcc, 0xff, 0x54, 0xbe, 0x5b, 0x04, 0x54, 0xbd, 0x90, 0xeb, 0x4e, 0xbd, 0xc4, 0x0b, 0x7e, 0x3e, 0x2c, 0xf2, 0x42, 0x3e, 0xbe, 0x2c, 0xf4, 0xbc, 0x2c, 0xa4, 0xa0, 0xbe, 0xf7, 0x5b, 0x23, 0xbe, 0x17, 0x41, 0x43, 0xbe, 0xa1, 0x4f, 0x70, 0x37, 0x52, 0x0c, 0xcf, 0xbd, 0x0e, 0x62, 0x80, 0xba, 0xab, 0x56, 0x14, 0xbd, 0xeb, 0xaa, 0x41, 0x3d, 0x64, 0xd1, 0x8b, 0x3d, 0x20, 0xa9, 0x16, 0xbe, 0x6a, 0x0c, 0x86, 0xbe, 0xb6, 0xb5, 0x04, 0xbe, 0xc9, 0xe6, 0x9d, 0xbe, 0xba, 0x1b, 0xe3, 0xbd, 0xb8, 0x83, 0x35, 0x3e, 0xbf, 0x7a, 0x0c, 0xbe, 0xa6, 0xbc, 0x8a, 0xbe, 0x89, 0x43, 0x10, 0xbd, 0x9f, 0xb6, 0x53, 0xbe, 0x1c, 0xfd, 0x18, 0xbe, 0x63, 0x80, 0x78, 0xbc, 0x73, 0x45, 0x91, 0xbe, 0x28, 0x52, 0x42, 0xbe, 0xf5, 0x69, 0x71, 0x3e, 0x91, 0xfe, 0xe5, 0x3d, 0x13, 0x8c, 0x57, 0xbe, 0x9b, 0x0c, 0x2c, 0x3e, 0xe0, 0x7b, 0x1a, 0xbe, 0xb3, 0x7c, 0x0a, 0xbe, 0x0c, 0x77, 0xe4, 0xba, 0x33, 0xe2, 0x94, 0xbe, 0x25, 0x0c, 0x3b, 0x3d, 0x3d, 0xc0, 0xf7, 0xbd, 0x8b, 0x50, 0x29, 0x3e, 0x62, 0x9e, 0x63, 0xbc, 0x83, 0x79, 0x96, 0xbe, 0x8d, 0xb8, 0xf2, 0x3c, 0x8c, 0x7d, 0x23, 0x3e, 0x0d, 0x4d, 0x35, 0x3e, 0x96, 0xe3, 0x15, 0xbd, 0x8d, 0xb5, 0xe1, 0xbd, 0xf3, 0xf3, 0x08, 0x3e, 0x3b, 0xcd, 0xc2, 0xbb, 0x46, 0xbf, 0xbf, 0x3d, 0x70, 0x93, 0x01, 0x3e, 0xb0, 0x5c, 0x31, 0xbe, 0x9e, 0x16, 0xb3, 0xbe, 0x33, 0x21, 0x07, 0xbe, 0xe8, 0x8b, 0xd2, 0x3d, 0xc8, 0x5c, 0xbf, 0x3d, 0x51, 0xad, 0x3c, 0xbe, 0x60, 0x86, 0x3f, 0x3e, 0x4b, 0x37, 0x8f, 0xbd, 0xb9, 0x00, 0xa4, 0xbe, 0x7f, 0x27, 0x6f, 0xbe, 0x65, 0x13, 0xad, 0xbe, 0xef, 0x88, 0x89, 0xbe, 0x93, 0xc7, 0x1c, 0xbe, 0x97, 0x62, 0xd9, 0x3d, 0x4e, 0xbd, 0x00, 0x3d, 0x0e, 0xd5, 0x7c, 0xbe, 0x63, 0xdb, 0xb2, 0xbe, 0xfd, 0xee, 0x00, 0xbe, 0x5e, 0xd1, 0x80, 0xba, 0x29, 0x3f, 0x76, 0xbe, 0x1b, 0x01, 0x3a, 0x3e, 0x55, 0x69, 0x04, 0x3e, 0x6a, 0x1b, 0x46, 0xbc, 0x1b, 0x6e, 0x42, 0x3e, 0xd8, 0xfe, 0x47, 0xbc, 0x05, 0xee, 0x29, 0x3e, 0xfb, 0x49, 0x5e, 0xbe, 0x00, 0x4e, 0x35, 0xbe, 0xa2, 0x6e, 0x99, 0x3d, 0x83, 0x31, 0x6b, 0x3e, 0x86, 0x47, 0x1f, 0x3e, 0xe7, 0x7c, 0xf7, 0x3d, 0x11, 0x26, 0x40, 0xbe, 0xe3, 0x92, 0x85, 0x3c, 0xc8, 0xb7, 0xb4, 0xbc, 0xa3, 0xb6, 0xa6, 0xbe, 0x55, 0x1a, 0x51, 0x3e, 0x15, 0xd5, 0x43, 0xbe, 0x5a, 0x65, 0xb6, 0xbe, 0x49, 0x4d, 0x93, 0xbc, 0x6c, 0x8e, 0xb2, 0x3e, 0x95, 0x20, 0x17, 0xbe, 0x6a, 0x4d, 0x8c, 0xbe, 0xdb, 0x81, 0xe6, 0xbc, 0x9a, 0x70, 0x14, 0x3e, 0x0d, 0x8d, 0x07, 0x3e, 0x09, 0xc7, 0x7c, 0x3d, 0x35, 0x78, 0x7c, 0xbe, 0xd9, 0x9c, 0xab, 0x3e, 0x84, 0x03, 0x83, 0xbe, 0xc5, 0x75, 0xcf, 0x3c, 0x4e, 0x03, 0x70, 0xbe, 0xec, 0x99, 0xe3, 0x3d, 0x30, 0x0b, 0x51, 0xbe, 0x76, 0x12, 0xbb, 0xbe, 0x24, 0x92, 0x42, 0x3d, 0x2f, 0xfe, 0x18, 0x3d, 0xe9, 0xb5, 0x32, 0x3e, 0x50, 0xa2, 0x20, 0x3d, 0x4e, 0x13, 0xe0, 0x3d, 0x4d, 0x1e, 0x56, 0xbe, 0x92, 0x00, 0x23, 0xbe, 0x08, 0x10, 0x74, 0xbe, 0xbc, 0x4c, 0xc2, 0xbc, 0x46, 0xb5, 0x94, 0xbe, 0x4e, 0x01, 0x2d, 0x3e, 0x4e, 0x9f, 0xd1, 0xbd, 0xff, 0x1c, 0x8c, 0xbe, 0x27, 0x49, 0x89, 0xbe, 0xf1, 0x48, 0x3e, 0x3c, 0xfe, 0x4a, 0x0c, 0x3d, 0x31, 0x2e, 0x54, 0xbe, 0xfb, 0x8d, 0x33, 0xbe, 0x1f, 0x47, 0x1f, 0x3e, 0xed, 0xbe, 0x27, 0xbe, 0x51, 0x25, 0x97, 0xbd, 0x9e, 0x02, 0x6e, 0xbd, 0xb2, 0x79, 0x01, 0x3e, 0x2c, 0xd7, 0xa3, 0xbe, 0x81, 0x20, 0xa6, 0xbe, 0x2a, 0xfc, 0x77, 0xbd, 0x3f, 0x7b, 0x6d, 0xbe, 0xcf, 0x11, 0x44, 0x3e, 0x65, 0x2b, 0x5b, 0xbe, 0x72, 0xfe, 0x3e, 0x3e, 0xb4, 0x45, 0x92, 0xbd, 0xd4, 0x12, 0x63, 0x3d, 0x7e, 0x6f, 0x6b, 0xbe, 0xd2, 0x52, 0xb0, 0x3c, 0x1f, 0x57, 0x6d, 0xbe, 0x5d, 0x67, 0xce, 0xbd, 0xac, 0x94, 0x37, 0x3e, 0xd3, 0x4e, 0x6a, 0xbe, 0x2c, 0x5b, 0xe8, 0xbc, 0x95, 0x57, 0xe4, 0x3d, 0xa3, 0xa2, 0x87, 0xbe, 0x0f, 0xde, 0x83, 0xbe, 0x4f, 0x36, 0xf2, 0xbd, 0x9e, 0x23, 0x77, 0xbe, 0xbf, 0x1f, 0x0e, 0x3e, 0xef, 0xc6, 0xa1, 0xbc, 0x8f, 0x04, 0x17, 0x3e, 0x36, 0x05, 0x37, 0x3e, 0xed, 0x30, 0x38, 0xbe, 0x85, 0xf6, 0x27, 0x3e, 0x78, 0x5b, 0x93, 0xbe, 0xde, 0x17, 0xae, 0x3d, 0x28, 0x3c, 0xbc, 0xbd, 0x93, 0xfc, 0xb4, 0xbd, 0xea, 0xfe, 0x26, 0xbd, 0xa0, 0xa9, 0xde, 0xbd, 0xdc, 0x0c, 0x3b, 0x3e, 0xec, 0x40, 0x77, 0xbe, 0x0f, 0x67, 0xa9, 0xbe, 0x9a, 0x6d, 0x4b, 0xbe, 0x9d, 0x7c, 0xe0, 0xbb, 0x80, 0x81, 0x9f, 0xbe, 0xf6, 0x43, 0x77, 0xbe, 0xae, 0xb4, 0x6d, 0x3c, 0x18, 0x4a, 0x26, 0x3d, 0x01, 0x86, 0x9d, 0xbe, 0xec, 0x54, 0xb5, 0xbe, 0xe5, 0x6d, 0x80, 0xbd, 0x90, 0xc0, 0x06, 0x3d, 0xba, 0xe6, 0xac, 0x3d, 0x1b, 0x47, 0xa4, 0xbd, 0x15, 0xc1, 0x53, 0xbe, 0x7c, 0xf3, 0x04, 0xbe, 0x69, 0x76, 0x0c, 0x3e, 0xec, 0x4d, 0x82, 0xbe, 0x21, 0x2b, 0x8d, 0xbe, 0x8d, 0xc8, 0x86, 0x3e, 0xa5, 0x61, 0xc6, 0xbc, 0xa8, 0x74, 0x63, 0x3e, 0x9c, 0x10, 0xf6, 0x3e, 0xd0, 0xd2, 0x2f, 0xbe, 0x0b, 0x66, 0xbb, 0x3d, 0x49, 0x1d, 0x0f, 0xbe, 0xde, 0x61, 0x6a, 0xbe, 0xdc, 0x5c, 0x8c, 0x3d, 0xc5, 0x24, 0x6d, 0xbe, 0x6a, 0x6a, 0xcc, 0xbe, 0x81, 0xf1, 0x59, 0x3e, 0x81, 0xab, 0xe9, 0x3d, 0x3e, 0xc4, 0x8f, 0xbe, 0xf8, 0x7a, 0x98, 0xbe, 0x97, 0x59, 0xfd, 0x3e, 0x8a, 0x81, 0x4f, 0x3e, 0x13, 0xe1, 0x29, 0xbe, 0x39, 0x12, 0x6d, 0x3e, 0x7f, 0xd9, 0xa9, 0x3e, 0xdb, 0x67, 0xef, 0xbc, 0x33, 0xcc, 0xb5, 0x3e, 0x4d, 0x80, 0x39, 0xbe, 0xad, 0x45, 0x7d, 0x3d, 0x74, 0xf7, 0xc5, 0xbb, 0xd4, 0xd1, 0x6d, 0x3d, 0x5c, 0x46, 0x3f, 0x3e, 0x26, 0x95, 0x83, 0xbe, 0x9e, 0x3a, 0xd2, 0xbe, 0x68, 0xb2, 0x26, 0x3e, 0x40, 0x53, 0x78, 0x3e, 0xd9, 0x3a, 0x1c, 0xbd, 0x9c, 0x68, 0x54, 0xbc, 0x45, 0x9e, 0x4b, 0xbe, 0x78, 0x2e, 0x4d, 0x3e, 0x90, 0x60, 0xee, 0x3d, 0x74, 0x96, 0x98, 0x3c, 0x90, 0x00, 0x13, 0xbe, 0xe4, 0xdf, 0xed, 0xbd, 0x95, 0xc6, 0xec, 0xbe, 0x45, 0x3e, 0xa5, 0xbe, 0x62, 0x21, 0xa8, 0xbe, 0x7e, 0x1c, 0x64, 0xbd, 0x66, 0xe9, 0xb3, 0xbd, 0x72, 0x0f, 0x07, 0x3d, 0x6f, 0x62, 0xdf, 0x3d, 0xe9, 0x07, 0x57, 0x3e, 0x18, 0x63, 0x27, 0xbe, 0x42, 0x73, 0x31, 0xbe, 0x5a, 0x11, 0x91, 0xbe, 0x61, 0xf8, 0x6a, 0x3e, 0xbc, 0x29, 0x94, 0xbb, 0xa8, 0x7b, 0x45, 0xbe, 0x00, 0x8d, 0xb6, 0x3d, 0x6b, 0xc0, 0xe6, 0xbd, 0xf1, 0x5a, 0x2c, 0xbe, 0xa2, 0x32, 0x21, 0xbe, 0x10, 0x65, 0x39, 0xbe, 0x4b, 0x4e, 0x00, 0x3b, 0x88, 0x27, 0xe9, 0xbd, 0x4e, 0x20, 0xa0, 0xbe, 0x5c, 0x92, 0xfe, 0xbd, 0xf5, 0x48, 0x5f, 0x3e, 0x70, 0xe6, 0xda, 0xbd, 0xce, 0x66, 0xa0, 0xbd, 0x33, 0xd2, 0x9f, 0x3c, 0x20, 0xc1, 0x0b, 0x3d, 0x59, 0x9a, 0xc0, 0xbe, 0xe6, 0xfa, 0xdd, 0xbd, 0xb2, 0x0f, 0x9b, 0xbd, 0x25, 0xce, 0x20, 0xbd, 0xab, 0x31, 0x89, 0xbe, 0x85, 0x2b, 0xb6, 0x3c, 0xff, 0x68, 0xb0, 0x3d, 0xc2, 0x5e, 0x1a, 0xbe, 0x34, 0x41, 0x8f, 0x3e, 0xdb, 0x99, 0xd7, 0x3e, 0xe8, 0xbc, 0x6f, 0xbe, 0x14, 0xad, 0xe8, 0xbc, 0xf2, 0x88, 0x73, 0x3e, 0x16, 0xf4, 0xdf, 0xbd, 0xa1, 0x72, 0xc9, 0xbe, 0xf3, 0x05, 0xa7, 0xbe, 0x41, 0x11, 0x0d, 0xbe, 0x5f, 0x96, 0x8b, 0xbd, 0xbf, 0x90, 0x44, 0xbd, 0x03, 0x49, 0x25, 0x3d, 0xb4, 0x5b, 0x86, 0xbe, 0xcb, 0xd9, 0xc4, 0xbe, 0xf3, 0xbd, 0x3e, 0x3c, 0x98, 0x6f, 0x46, 0x3e, 0x54, 0xe2, 0xd5, 0xbb, 0xa3, 0x03, 0x9b, 0xbe, 0xf5, 0xab, 0x8a, 0xbb, 0x07, 0x5e, 0x83, 0xbe, 0x12, 0x63, 0xfc, 0x3d, 0xfd, 0x2c, 0xa4, 0xbd, 0xfb, 0x15, 0x07, 0x3e, 0x4e, 0x41, 0x29, 0x3e, 0x61, 0x89, 0x48, 0xbe, 0x1f, 0x52, 0xb0, 0xbe, 0xe4, 0x7d, 0x81, 0xbe, 0x7b, 0x54, 0x82, 0xbe, 0xa0, 0x2c, 0x85, 0xbe, 0xf1, 0x37, 0x07, 0xbe, 0x63, 0x91, 0x13, 0x3e, 0x22, 0xdc, 0x06, 0xbe, 0xcb, 0xfa, 0xf0, 0xbd, 0x6f, 0x84, 0xab, 0xbd, 0xa8, 0xd4, 0xda, 0x3d, 0xed, 0x5a, 0x52, 0xbe, 0x68, 0x3c, 0x0d, 0x3e, 0xc6, 0xf5, 0x89, 0xbd, 0xdd, 0xb8, 0x39, 0xbe, 0x62, 0x24, 0xcf, 0xbd, 0x84, 0x58, 0x08, 0xbe, 0xc9, 0xc7, 0xa0, 0x3d, 0x8b, 0x8c, 0x67, 0x3e, 0xcb, 0x99, 0x04, 0x3e, 0x7a, 0xf4, 0x7f, 0xbe, 0x12, 0xd1, 0xff, 0x3d, 0xc0, 0xff, 0xb4, 0xbe, 0x12, 0x9d, 0x2e, 0xbe, 0x1d, 0xe4, 0x7f, 0x3d, 0x41, 0x00, 0x55, 0xbd, 0xec, 0xb2, 0x04, 0xbe, 0x26, 0x7b, 0xcd, 0x3e, 0x57, 0x51, 0x31, 0xbe, 0x23, 0xfc, 0x24, 0xbe, 0x06, 0xad, 0x16, 0x3e, 0xe0, 0xf9, 0xe8, 0xbd, 0xec, 0x2a, 0xd5, 0xbd, 0xdd, 0xc1, 0x53, 0x3d, 0xc7, 0x21, 0xbb, 0xbd, 0xab, 0x54, 0xac, 0xbe, 0x38, 0x23, 0x66, 0x3d, 0xb3, 0x80, 0x19, 0x3e, 0xa5, 0x7b, 0x29, 0xbd, 0x8f, 0x82, 0x05, 0xbe, 0x2b, 0xe3, 0x93, 0xbd, 0xe7, 0x0a, 0xd0, 0xbd, 0x03, 0x37, 0xc3, 0x3d, 0x89, 0x4e, 0x9d, 0x3e, 0xf9, 0x5e, 0xa8, 0x3e, 0x33, 0x51, 0x12, 0xbe, 0x48, 0xf2, 0x3b, 0xbe, 0xe5, 0x00, 0x70, 0xbd, 0xad, 0x6d, 0x81, 0xbd, 0xed, 0xa5, 0x30, 0xbe, 0x3d, 0x0c, 0x0a, 0x3d, 0x03, 0x59, 0x80, 0xbe, 0x70, 0xe8, 0x8a, 0xbc, 0x8d, 0x23, 0x99, 0xbd, 0xa3, 0x39, 0x8a, 0xbe, 0x6e, 0xfe, 0xff, 0xff, 0x10, 0x00, 0x00, 0x00, 0x05, 0x00, 0x00, 0x00, 0x14, 0x00, 0x00, 0x00, 0x2c, 0x00, 0x00, 0x00, 0x02, 0x00, 0x00, 0x00, 0x20, 0x00, 0x00, 0x00, 0x20, 0x00, 0x00, 0x00, 0x17, 0x00, 0x00, 0x00, 0x73, 0x65, 0x71, 0x75, 0x65, 0x6e, 0x74, 0x69, 0x61, 0x6c, 0x2f, 0x64, 0x65, 0x6e, 0x73, 0x65, 0x2f, 0x4d, 0x61, 0x74, 0x4d, 0x75, 0x6c, 0x00, 0xfc, 0xfd, 0xff, 0xff, 0xce, 0xfe, 0xff, 0xff, 0x04, 0x00, 0x00, 0x00, 0x80, 0x00, 0x00, 0x00, 0x0a, 0xee, 0x36, 0xbe, 0x6e, 0xe9, 0xad, 0xbc, 0x00, 0x00, 0x00, 0x00, 0x6b, 0x51, 0x8b, 0xbd, 0xc6, 0xf5, 0xae, 0x3e, 0x11, 0x03, 0x27, 0xbe, 0x26, 0xd9, 0xc4, 0xbd, 0x39, 0x8e, 0x22, 0xbe, 0x81, 0x57, 0x19, 0xbd, 0x18, 0xe7, 0x92, 0xbd, 0xbd, 0x75, 0x2d, 0xbe, 0x2e, 0xe2, 0xb3, 0xbd, 0x7a, 0x9e, 0x8b, 0x3d, 0xfc, 0x13, 0x1f, 0xbe, 0x93, 0xa2, 0x3e, 0xbe, 0xe6, 0x25, 0x0d, 0x3e, 0x3b, 0xa3, 0xae, 0xbc, 0xd0, 0xa4, 0x87, 0xbc, 0x9e, 0xb0, 0x58, 0xbe, 0x3a, 0x4c, 0x82, 0xbd, 0x6a, 0x4d, 0x36, 0xbe, 0x7e, 0x27, 0x76, 0xbd, 0xd3, 0x1a, 0xb0, 0xbc, 0xc4, 0x8a, 0xbd, 0xbd, 0x3c, 0x9b, 0x01, 0x3e, 0x86, 0xcc, 0x24, 0xbd, 0xad, 0x40, 0x10, 0xbe, 0x2a, 0xa9, 0x61, 0x3e, 0x9f, 0x63, 0x1a, 0xbe, 0x81, 0x67, 0x0e, 0x3b, 0x9b, 0x64, 0x03, 0xbe, 0x4d, 0xb3, 0xec, 0xbd, 0x3a, 0xff, 0xff, 0xff, 0x10, 0x00, 0x00, 0x00, 0x04, 0x00, 0x00, 0x00, 0x10, 0x00, 0x00, 0x00, 0x1c, 0x00, 0x00, 0x00, 0x01, 0x00, 0x00, 0x00, 0x20, 0x00, 0x00, 0x00, 0x0a, 0x00, 0x00, 0x00, 0x64, 0x65, 0x6e, 0x73, 0x65, 0x2f, 0x62, 0x69, 0x61, 0x73, 0x00, 0x00, 0xb8, 0xfe, 0xff, 0xff, 0x8a, 0xff, 0xff, 0xff, 0x04, 0x00, 0x00, 0x00, 0x30, 0x00, 0x00, 0x00, 0x09, 0x97, 0xa0, 0xbe, 0x8d, 0x0e, 0x88, 0xbe, 0xb8, 0x5a, 0x8c, 0xbe, 0xca, 0x59, 0xbf, 0xbe, 0xc4, 0xf8, 0x96, 0xbe, 0x09, 0x2a, 0xfa, 0xbe, 0xfb, 0xdf, 0x5d, 0xbf, 0x4d, 0x39, 0x1e, 0xbf, 0xf7, 0xb4, 0x3e, 0xbe, 0xa4, 0x0e, 0x8f, 0x3e, 0xd8, 0x21, 0x89, 0x3d, 0x54, 0x01, 0x0b, 0x3f, 0xa6, 0xff, 0xff, 0xff, 0x10, 0x00, 0x00, 0x00, 0x03, 0x00, 0x00, 0x00, 0x10, 0x00, 0x00, 0x00, 0x24, 0x00, 0x00, 0x00, 0x01, 0x00, 0x00, 0x00, 0x0c, 0x00, 0x00, 0x00, 0x0c, 0x00, 0x00, 0x00, 0x64, 0x65, 0x6e, 0x73, 0x65, 0x5f, 0x31, 0x2f, 0x62, 0x69, 0x61, 0x73, 0x00, 0x00, 0x00, 0x00, 0x04, 0x00, 0x06, 0x00, 0x04, 0x00, 0x00, 0x00, 0x00, 0x00, 0x06, 0x00, 0x08, 0x00, 0x04, 0x00, 0x06, 0x00, 0x00, 0x00, 0x04, 0x00, 0x00, 0x00, 0x0c, 0x00, 0x00, 0x00, 0x97, 0x74, 0x5c, 0x3f, 0xed, 0xe2, 0x73, 0xc0, 0x3f, 0xa9, 0xd5, 0x3f, 0x00, 0x00, 0x0e, 0x00, 0x14, 0x00, 0x04, 0x00, 0x00, 0x00, 0x08, 0x00, 0x0c, 0x00, 0x10, 0x00, 0x0e, 0x00, 0x00, 0x00, 0x10, 0x00, 0x00, 0x00, 0x02, 0x00, 0x00, 0x00, 0x10, 0x00, 0x00, 0x00, 0x20, 0x00, 0x00, 0x00, 0x01, 0x00, 0x00, 0x00, 0x03, 0x00, 0x00, 0x00, 0x0c, 0x00, 0x00, 0x00, 0x64, 0x65, 0x6e, 0x73, 0x65, 0x5f, 0x32, 0x2f, 0x62, 0x69, 0x61, 0x73, 0x00, 0x00, 0x00, 0x00, 0x90, 0xff, 0xff, 0xff, 0x14, 0x00, 0x18, 0x00, 0x04, 0x00, 0x00, 0x00, 0x08, 0x00, 0x0c, 0x00, 0x10, 0x00, 0x00, 0x00, 0x00, 0x00, 0x14, 0x00, 0x14, 0x00, 0x00, 0x00, 0x14, 0x00, 0x00, 0x00, 0x01, 0x00, 0x00, 0x00, 0x18, 0x00, 0x00, 0x00, 0x44, 0x00, 0x00, 0x00, 0x34, 0x00, 0x00, 0x00, 0x02, 0x00, 0x00, 0x00, 0x01, 0x00, 0x00, 0x00, 0x20, 0x00, 0x00, 0x00, 0x1d, 0x00, 0x00, 0x00, 0x73, 0x65, 0x72, 0x76, 0x69, 0x6e, 0x67, 0x5f, 0x64, 0x65, 0x66, 0x61, 0x75, 0x6c, 0x74, 0x5f, 0x64, 0x65, 0x6e, 0x73, 0x65, 0x5f, 0x69, 0x6e, 0x70, 0x75, 0x74, 0x3a, 0x30, 0x00, 0x00, 0x00, 0x02, 0x00, 0x00, 0x00, 0xff, 0xff, 0xff, 0xff, 0x20, 0x00, 0x00, 0x00, 0xfc, 0xff, 0xff, 0xff, 0x04, 0x00, 0x04, 0x00, 0x04, 0x00, 0x00, 0x00};
const int model_data_len = 7788;